<unk>	0
<s>	0
</s>	0
,	-3.15596
▁!	-3.18685
को	-3.91399
ी	-3.91651
मा	-3.99365
ा	-4.12941
र	-4.17529
न	-4.24728
▁	-4.258
ु	-4.34238
ल	-4.40814
े	-4.48072
ि	-4.48744
का	-4.58643
ो	-4.59578
ले	-4.66888
▁छ	-4.74808
स	-4.75245
क	-4.76251
म	-4.77886
प	-4.81519
्	-4.87205
▁म	-4.96564
▁स	-5.01642
.	-5.04999
–	-5.07533
द	-5.14359
त	-5.14676
▁?	-5.15329
▁क	-5.15996
▁।	-5.1777
▁न	-5.19382
▁अ	-5.20405
▁ग	-5.22101
ज	-5.23174
▁प	-5.23427
ग	-5.23527
▁च	-5.25913
ट	-5.26005
ै	-5.28274
ह	-5.32556
ला	-5.32889
न्	-5.4109
▁ब	-5.46586
▁ज	-5.46903
ू	-5.47709
▁त	-5.48452
च	-5.4859
▁हो	-5.4894
▁यो	-5.50657
री	-5.51627
ँ	-5.51718
व	-5.54963
र्	-5.59055
▁र	-5.59928
श	-5.63465
ता	-5.64558
ली	-5.64915
ेर	-5.66067
रा	-5.67345
ब	-5.67602
▁उ	-5.70735
▁ख	-5.72262
ध	-5.7394
्छ	-5.7863
य	-5.79571
▁ध	-5.81678
ख	-5.82436
▁द	-5.85288
लाई	-5.86001
▁नि	-5.89183
▁ल	-5.89586
▁भ	-5.90024
्य	-5.90354
की	-5.90412
▁श	-5.90989
ना	-5.91137
ड	-5.9142
्र	-5.92066
स्	-5.93168
्दछ	-5.93571
▁आ	-5.93882
ण	-5.95013
छ	-6.00969
ौ	-6.02748
▁फ	-6.05047
ार	-6.05466
▁एक	-6.06064
्न	-6.0719
▁घ	-6.08976
ित	-6.13144
ाँ	-6.16017
▁झ	-6.1781
्या	-6.19031
▁के	-6.1982
▁ती	-6.2249
▁ह	-6.22682
ति	-6.22683
▁वि	-6.22744
ं	-6.2332
ान	-6.26171
▁जल	-6.28415
▁तिमी	-6.28647
थ	-6.29564
▁भन	-6.31031
ष	-6.32097
ल्	-6.32823
▁पर	-6.34857
ेको	-6.36562
▁ए	-6.38274
ाई	-6.39211
ुर	-6.39752
भ	-6.39791
इ	-6.42554
ङ्ग	-6.42638
फ	-6.44441
▁बन	-6.45327
▁प्र	-6.47331
▁छन्	-6.49062
▁हे	-6.49537
िन्	-6.50096
त्	-6.50465
्यो	-6.509
▁गर	-6.5105
दा	-6.51526
स्त	-6.51827
िर	-6.52542
िन	-6.53171
ठ	-6.5348
▁सब	-6.54485
ाल	-6.5618
▁‘	-6.5773
ाली	-6.57744
▁यस	-6.57856
▁मन	-6.58088
▁मेरो	-6.58563
▁त्यो	-6.60689
▁ट	-6.61443
▁बोल	-6.62265
▁थ	-6.63019
्ने	-6.63607
वा	-6.64895
▁नै	-6.65913
▁सुन्दर	-6.66403
▁स्वर्ग	-6.67343
लो	-6.67411
यौ	-6.68413
▁दिन	-6.68589
▁हेर	-6.68878
जा	-6.69415
▁बा	-6.71779
हरु	-6.72468
▁रे	-6.72663
उ	-6.74647
डा	-6.76132
▁बि	-6.76469
▁ड	-6.77769
’	-6.78553
▁तर	-6.78902
▁भो	-6.80094
ती	-6.8051
्छन्	-6.80905
-	-6.81791
▁य	-6.82499
▁देख	-6.83249
▁चि	-6.8353
नी	-6.83638
▁“	-6.83907
ृ	-6.83989
घ	-6.84606
▁आँखा	-6.84982
िए	-6.85179
▁सु	-6.86386
ाउँछ	-6.86638
्दा	-6.87172
▁प्यार	-6.8729
▁पु	-6.88327
▁कु	-6.88818
▁हामी	-6.89414
!	-6.90243
▁ढ	-6.90293
त्र	-6.90702
ङ	-6.92536
▁रु	-6.92574
▁फूल	-6.92864
▁जीवन	-6.93201
िल	-6.93645
या	-6.94015
▁आत्मा	-6.9543
झ	-6.95609
▁सुन	-6.96534
यो	-6.97705
▁क्या	-6.97736
▁आज	-6.98146
▁ठ	-6.98658
ौँ	-6.98685
रो	-6.99216
हि	-7.0047
ुक	-7.00961
▁दिल	-7.01784
▁मुटु	-7.02682
▁मलाई	-7.03665
क्ष	-7.04124
▁पा	-7.04291
▁बस	-7.04419
▁व	-7.0467
भा	-7.05901
▁उड	-7.06063
▁जो	-7.06229
▁मानिस	-7.06627
टा	-7.07136
सँग	-7.07578
▁तिम्रो	-7.07974
ेका	-7.08093
सी	-7.08424
▁रस	-7.08514
▁ला	-7.08635
▁रो	-7.0897
▁संसार	-7.09345
भित्र	-7.09454
हरुको	-7.09539
ाए	-7.09618
वन	-7.09741
ूँ	-7.09804
▁मर	-7.0987
▁चल	-7.10099
▁मु	-7.10157
ुँ	-7.10816
भर	-7.11076
▁सि	-7.11596
ँग	-7.11745
▁सम	-7.12389
▁सारा	-7.12689
ाइ	-7.13015
डी	-7.13236
्नु	-7.13663
िक	-7.14439
▁फुल	-7.14923
वि	-7.14981
ई	-7.15038
्द	-7.16459
▁मुना	-7.16848
दी	-7.17448
ाउ	-7.17589
▁भू	-7.18053
▁छु	-7.19242
शा	-7.19315
▁किन	-7.19401
ायो	-7.19698
▁घर	-7.20129
▁ता	-7.22347
हा	-7.22431
▁वन	-7.22979
—	-7.24186
▁वा	-7.24853
▁रङ्ग	-7.25085
▁विश्व	-7.2588
्व	-7.25887
प्	-7.2601
▁चढ	-7.26311
पा	-7.26639
▁हुँ	-7.26809
▁भर	-7.27543
ए	-7.27583
ानी	-7.27601
्छु	-7.27658
हे	-7.2913
▁आमा	-7.29639
ढ	-7.30101
”	-7.30207
के	-7.30228
▁तिन	-7.30429
▁त्यस	-7.30678
द्ध	-7.30979
ाउन	-7.31084
्यौ	-7.31116
▁युग	-7.31153
ीकन	-7.3238
▁बादल	-7.32541
▁भए	-7.32806
▁रात	-7.33289
ऊ	-7.3353
▁लाग	-7.33835
हर	-7.33957
▁आँसु	-7.34279
ुवा	-7.34606
िन्छ	-7.34785
्दै	-7.35247
▁मानव	-7.36035
झैं	-7.36414
▁पृथिवी	-7.37882
▁प्रकृति	-7.38181
▁उठ	-7.38666
उँ	-7.39284
न्छ	-7.39627
▁छाया	-7.39758
▁हिमाल	-7.39806
▁हा	-7.41056
्वा	-7.4108
▁होला	-7.41305
▁सम्झ	-7.4132
सा	-7.4152
▁हृदय	-7.41621
▁कुन	-7.41719
▁पनि	-7.41767
▁जान	-7.43205
▁मेरी	-7.43685
▁दु	-7.43755
▁मिल	-7.44145
▁कि	-7.45162
ण्ड	-7.45539
▁कवि	-7.46363
▁गो	-7.47021
ृत	-7.47338
▁छाती	-7.47535
▁ङ	-7.4798
िया	-7.4819
▁नेपाली	-7.48236
ही	-7.48246
कन	-7.48343
िम	-7.49604
▁पि	-7.50659
▁काल	-7.51073
▁दुःख	-7.51629
▁माटो	-7.51633
▁क्षण	-7.51635
▁झर	-7.51736
▁हुन्छ	-7.52056
▁भै	-7.52099
▁राज	-7.52373
ियो	-7.53548
▁हाम्रो	-7.53757
▁किरण	-7.53818
▁यही	-7.53891
▁रुन्छ	-7.53935
क्क	-7.54312
▁अब	-7.55166
▁हात	-7.55305
▁अमृत	-7.55936
▁केवल	-7.5595
▁कोही	-7.56037
▁छैन	-7.56053
ेली	-7.56674
ाऊ	-7.57001
▁फु	-7.57122
▁मि	-7.57434
▁आकाश	-7.58172
▁भाव	-7.582
ेकी	-7.58559
▁।।	-7.58812
▁खोल	-7.58986
हार	-7.60002
▁हर	-7.60115
▁जा	-7.60169
▁पो	-7.60206
तिर	-7.60262
▁मेरा	-7.60562
▁!’	-7.60755
▁मुख	-7.61821
▁ईश्वर	-7.62751
▁मीठो	-7.62751
▁प्राण	-7.62766
ष्ट	-7.62794
्ला	-7.62924
बाट	-7.63135
्रा	-7.64455
▁यी	-7.64776
ऊँ	-7.64958
▁बुझ	-7.65143
▁पार	-7.65147
▁अन्त	-7.65177
▁जगत्	-7.65567
▁साथ	-7.6557
द्र	-7.65682
▁को	-7.66599
▁कसरी	-7.67617
▁भाइ	-7.68072
चा	-7.68402
क्त	-7.68871
▁जन	-7.69622
▁सृष्टि	-7.70071
▁दी	-7.70575
▁जाग	-7.70781
▁लहर	-7.70825
▁पानी	-7.71252
र्म	-7.71361
्दो	-7.71402
न्छन्	-7.71616
▁पाप	-7.71853
ट्	-7.72521
ः	-7.72635
▁यहाँ	-7.72638
▁मुस्क	-7.72665
्दछु	-7.72721
▁मदन	-7.72767
▁दा	-7.72883
िलो	-7.7307
▁तारा	-7.73395
माथि	-7.73876
्छिन्	-7.74567
▁साथी	-7.74834
▁हाँस	-7.75357
▁हुन्	-7.75508
▁आए	-7.75685
▁कम	-7.76835
▁ज्योति	-7.78276
▁केही	-7.78312
▁ओ	-7.78616
भन्दा	-7.7862
ें	-7.78868
▁लग	-7.79014
▁नील	-7.79036
था	-7.79899
▁सुर	-7.80165
िनी	-7.80455
थे	-7.81092
▁हि	-7.81467
रण	-7.81707
▁महा	-7.82536
▁पङ्ख	-7.83604
▁दूर	-7.83691
▁नाच	-7.83742
▁हावा	-7.83831
▁अरु	-7.83913
ँदै	-7.84155
ौं	-7.84828
आ	-7.85094
िने	-7.85193
▁वर	-7.85566
▁कर	-7.85905
m	-7.86545
ञ्च	-7.86548
हरुका	-7.869
▁झल्क	-7.86905
छन्	-7.86992
▁सुख	-7.87427
▁छौ	-7.87471
▁स्व	-7.87984
▁चिर	-7.88584
▁सुत	-7.8887
▁झन्	-7.89076
▁दिव्य	-7.89576
▁तिम्रा	-7.89576
▁विशाल	-7.89584
▁फेरि	-7.89602
च्च	-7.89608
▁ही	-7.90436
▁बोली	-7.9062
▁गर्छ	-7.91778
▁बल	-7.92261
▁पू	-7.92702
▁खोज	-7.9275
▁फर्क	-7.93052
▁धनी	-7.93844
ाएँ	-7.93855
▁मनको	-7.94865
िएको	-7.95526
▁प्रभु	-7.95936
▁कोमल	-7.9599
▁जून	-7.96
▁हिउँ	-7.96007
▁भेट	-7.96028
▁गीत	-7.97703
▁रानी	-7.97876
्थे	-7.98849
▁बाल	-7.98981
▁दुनियाँ	-7.9926
▁एउटा	-7.9926
▁पर्वत	-7.99262
▁मधुर	-7.99274
म्म	-7.99336
▁भार	-7.99547
▁झैँ	-7.99801
ल्क	-8.00042
▁जग	-8.00305
▁विष	-8.00349
▁बज	-8.00417
▁वै	-8.00673
▁ली	-8.01274
▁झैं	-8.0204
ञ	-8.02684
▁वर्ष	-8.02712
▁दृग	-8.02713
▁प्रथम	-8.02716
▁देश	-8.02764
▁कसले	-8.02853
ोस्	-8.03323
▁बढ	-8.03574
्दैन	-8.05779
िरहेछ	-8.05813
▁उज्यालो	-8.0628
▁पहाड	-8.06294
▁सपना	-8.06338
▁मान	-8.0708
▁आयो	-8.07093
र्क	-8.08737
सार	-8.09085
▁है	-8.09643
▁धम्र्म	-8.09983
▁मृत्यु	-8.09983
▁यस्तो	-8.09989
▁पन्छी	-8.10007
बीच	-8.103
▁अमर	-8.10341
▁सरि	-8.10468
बार	-8.10884
▁जब	-8.11036
▁स्वर	-8.13109
▁जादू	-8.13834
▁कहाँ	-8.13856
▁क्यै	-8.13857
हरुले	-8.13937
▁राख	-8.13944
▁गुन	-8.13987
▁गर्न	-8.14267
▁लुक	-8.1433
ान्त	-8.14716
▁?”	-8.15202
▁पात	-8.15835
▁आउँछ	-8.16113
मुख	-8.16591
ाउने	-8.16627
▁भन्छ	-8.17197
▁आफ्नो	-8.17829
▁सागर	-8.17833
िरहेको	-8.17844
▁बिहान	-8.17875
▁जन्म	-8.17899
▁देव	-8.1791
ँदो	-8.17925
▁भाग	-8.17937
▁मैले	-8.17952
▁उचाल	-8.18095
ून्	-8.18264
▁जस्तो	-8.18552
▁पाउ	-8.19215
▁अड	-8.19844
▁शीतल	-8.20176
▁लौ	-8.20445
▁बोक	-8.21577
▁अनन्त	-8.21997
▁शक्ति	-8.22002
ञ्ज	-8.22003
▁आफै	-8.22004
▁दिदी	-8.22007
▁वेद	-8.22025
▁अन्ध	-8.22027
▁दुई	-8.22183
▁नाम	-8.22409
▁काम	-8.2275
▁मानवता	-8.22884
श्व	-8.23295
▁चाल	-8.2387
▁नभ	-8.2566
▁कल्प	-8.26076
▁राम्रो	-8.26344
▁विचित्र	-8.26344
▁पृथ्वी	-8.26344
▁हाम्रा	-8.26345
▁स्वपना	-8.26348
▁सुनौला	-8.26349
▁चन्द्र	-8.26349
▁जहाँ	-8.26367
▁कल्पना	-8.26647
▁डर	-8.26732
▁माग	-8.27137
▁आशा	-8.27213
▁पारी	-8.27404
▁प्रति	-8.28341
▁छाल	-8.28473
▁शिर	-8.28527
रानी	-8.28976
▁हाल	-8.29137
▁बोल्छ	-8.2958
िई	-8.29896
▁तान	-8.29912
▁खुल	-8.30129
▁सुन्छ	-8.30576
▁इन्द्र	-8.30889
▁भाषा	-8.3089
▁यौटा	-8.30897
▁देऊ	-8.30898
छर्यौ	-8.30905
▁हजार	-8.30917
▁बाबा	-8.30919
▁नजर	-8.31085
▁होस्	-8.31091
▁हुन	-8.31244
▁जाति	-8.31394
▁घुम	-8.3158
किनार	-8.31637
▁भयो	-8.31976
▁खेल	-8.32914
▁कालो	-8.33413
▁माथि	-8.33524
्थ्यो	-8.33726
थ्यो	-8.33955
दिन	-8.34971
ङ्ग्र	-8.3564
▁यत्ति	-8.35653
ज्ञ	-8.35658
▁स्वप्न	-8.35658
▁पहिलो	-8.3566
ध्वनि	-8.35664
▁निशि	-8.35701
▁सडक	-8.35719
▁प्यास	-8.35725
▁अभि	-8.3576
▁चुली	-8.35766
▁घाम	-8.35782
▁सकल	-8.35953
▁दाना	-8.3635
▁भन्ने	-8.36742
▁बनाई	-8.36899
▁अझ	-8.37954
पछि	-8.38285
कणी	-8.38307
▁लाग्छ	-8.386
▁सार	-8.38985
▁मिरमिर	-8.40651
▁मन्दिर	-8.40652
इरहेछ	-8.40654
▁शून्य	-8.40655
▁मन्त्र	-8.40672
▁विजय	-8.40681
▁आगो	-8.40716
▁भोटे	-8.40792
▁भात	-8.408
▁साध	-8.40821
▁आदि	-8.40987
▁उनको	-8.41091
▁प्रेम	-8.41212
▁सम्झना	-8.41468
▁शहर	-8.41585
▁झार	-8.43802
▁जीव	-8.44684
▁मार	-8.4536
▁काँढा	-8.45915
▁ह्लासा	-8.45915
▁बत्ती	-8.45918
▁शान्ति	-8.45919
▁मोती	-8.45956
▁वायु	-8.45957
▁बाटो	-8.45982
▁समाज	-8.4627
▁धार	-8.46354
▁लाग्यो	-8.46403
▁लाल	-8.47176
▁झिल	-8.47869
▁फिर	-8.49282
▁नेपाल	-8.49431
?	-8.50024
▁आँशु	-8.5147
▁बिउँझ	-8.5147
▁कुसुम	-8.51471
▁ज्ञान	-8.51487
▁बुद्ध	-8.51488
▁किनारा	-8.51539
▁उषा	-8.51549
▁प्रलय	-8.51552
▁गाना	-8.51681
▁गगन	-8.51682
▁निम्ति	-8.51943
िरहेछन्	-8.5221
थ्यौ	-8.5221
्लान्	-8.53042
▁जगत	-8.54244
▁डाक	-8.55712
ओ	-8.55832
।।	-8.55896
¥	-8.57352
▁इच्छा	-8.57352
▁बिजुली	-8.57353
▁हजूर	-8.57353
▁आनन्द	-8.57353
▁डाँडा	-8.57354
▁क्वै	-8.57364
▁लिएर	-8.57378
▁टिप	-8.57428
▁पशु	-8.57496
्छौं	-8.57567
▁एकान्त	-8.57714
उँछयौ	-8.57925
▁थिए	-8.58131
▁तरङ्ग	-8.58416
▁हाय	-8.58449
▁बाफ	-8.58492
▁अनि	-8.58683
▁कथा	-8.58757
▁भुल	-8.58972
ाटी	-8.60869
;	-8.63602
ाऔँ	-8.63602
▁अँध्यारो	-8.63602
▁गुलाफ	-8.63603
▁मसिनो	-8.63603
▁डुकू	-8.63605
▁आफू	-8.63612
▁कहानी	-8.63618
ण्ठ	-8.63619
▁विचार	-8.63647
▁बिर्स	-8.63648
▁नित्य	-8.63656
▁भोलि	-8.63692
शङ्क	-8.63808
▁थियो	-8.64029
▁सत्य	-8.64443
▁उम्	-8.66965
▁व्य	-8.68067
▁बन्द	-8.70118
▁अगाडि	-8.70269
▁स्पन्द	-8.70269
▁गैँडा	-8.70269
▁टाढा	-8.70269
▁वसन्त	-8.70269
▁हुँदैन	-8.70269
▁शिखर	-8.7027
▁सङ्गीत	-8.7027
▁हाँगा	-8.70275
▁बास्ना	-8.70276
▁चम्क	-8.70276
▁मालिक	-8.70277
▁ज्वाला	-8.70278
▁चट्ट	-8.7028
▁दर्शन	-8.70283
▁बच्चा	-8.70284
▁उक्ल	-8.70292
▁कहिले	-8.70302
▁दैव	-8.70305
ईकन	-8.70316
▁लाचार	-8.70317
▁सलिल	-8.70326
▁होइन	-8.70329
▁ओर्ल	-8.70331
▁बतास	-8.70349
▁सानो	-8.70355
ुट्ट	-8.70382
▁गरीब	-8.70382
▁थोर	-8.70398
▁शिव	-8.70432
▁माया	-8.70504
▁मात्र	-8.70507
▁उपर	-8.70525
▁तर्स	-8.70575
▁लेख	-8.70579
▁घुस	-8.706
▁वीर	-8.70608
▁रोई	-8.70691
▁ढाक	-8.70719
▁लिई	-8.7137
▁झुल	-8.71629
▁शीत	-8.73496
हुन	-8.73916
▁पिउ	-8.73944
पथमा	-8.74568
युग	-8.75229
महल	-8.7611
म्भ	-8.76339
▁कृष्ण	-8.77412
▁एउटै	-8.77412
▁कहिल्यै	-8.77412
▁त्यहाँ	-8.77412
▁शिल्प	-8.77412
▁कुइरो	-8.77413
▁मीठा	-8.77414
▁ज्वलन	-8.77414
▁सेतो	-8.77415
▁ठूलो	-8.77416
▁अथवा	-8.77421
▁साँझ	-8.77421
▁लच्क	-8.77428
▁घाँस	-8.7745
िँदा	-8.77461
▁गन्ध	-8.77465
▁कस्तो	-8.7747
▁जङ्गल	-8.777
▁मुहार	-8.77744
▁जुन	-8.78078
▁खास	-8.78106
▁पुकार	-8.78229
▁झलक	-8.81948
▁गुम	-8.83483
पारि	-8.83563
▁प्रकृत	-8.8382
-------------	-8.85104
▁ढुकढुक	-8.85104
पछाडि	-8.85104
▁बराबर	-8.85105
▁आखिर	-8.85114
▁गुँड	-8.85114
▁करुण	-8.85116
▁पग्ल	-8.85126
▁कलिलो	-8.85128
▁रेशम	-8.85131
▁नयाँ	-8.85149
▁विधि	-8.8516
▁शब्द	-8.85171
िरहन्छ	-8.85194
▁विलास	-8.85214
▁भिज	-8.85223
▁शरीर	-8.85235
▁पुगे	-8.85251
▁सोध	-8.85262
▁अहो	-8.85298
▁हरियो	-8.85321
▁गाँस	-8.85374
तन्त्र	-8.85579
▁बल्ल	-8.85611
▁सास	-8.85822
▁चोर	-8.88922
देखि	-8.90273
जस्तो	-8.92026
▁मातृभूमिको	-8.93438
▁सुगन्ध	-8.93438
▁उज्याला	-8.93438
▁पखेटा	-8.93438
▁पुष्प	-8.93438
▁मिठास	-8.93438
▁सभ्यता	-8.93438
▁ढुङ्गा	-8.93438
▁सधैँ	-8.93438
▁अश्रु	-8.93439
▁चाँदी	-8.93446
▁निद्रा	-8.93461
▁जुहार	-8.93462
▁बाँध	-8.93473
▁वचन	-8.9348
▁झ्याल	-8.93486
▁पागल	-8.93487
▁लेऊ	-8.93524
▁नाघ	-8.93547
▁रत्न	-8.93684
▁मौन	-8.93686
▁कुर्ल	-8.93763
▁डुल	-8.93821
▁उपल	-8.95462
बाबु	-8.95592
▁आत्म	-9.00956
झैँ	-9.01076
स्वर्ग	-9.01077
प्रति	-9.01111
▁क्रन्दन	-9.02528
▁भविष्य	-9.02528
▁अपूर्व	-9.02528
▁इतिहास	-9.02528
▁दृश्य	-9.02529
▁त्यस्तो	-9.02529
▁मृदु	-9.02529
▁गाढा	-9.02529
▁दिवस	-9.02529
▁बिन्दु	-9.02529
▁हिँड	-9.02533
▁हुनेछ	-9.02573
▁डुब	-9.02574
▁छाडे	-9.02581
▁श्रम	-9.02585
िइन्	-9.026
▁चूली	-9.02602
▁ज्यान	-9.02658
▁सच्चा	-9.0266
▁खुश	-9.02664
▁पखाल	-9.02811
▁हँस	-9.02884
▁आधा	-9.02939
▁हाँक	-9.02997
उपवन	-9.03585
स्वरुप	-9.03919
▁पुरान	-9.04093
▁बुलबुल	-9.12528
▁राष्ट्र	-9.12529
▁स्नायु	-9.12529
▁आफ्नै	-9.12529
▁उत्तर	-9.12529
▁पुरुष	-9.12529
▁व्यङ्ग्य	-9.12529
िंदो	-9.1253
▁गुलाब	-9.1253
▁तुहिन	-9.12532
▁पवित्र	-9.12533
▁त्यही	-9.12536
▁पूर्व	-9.12538
▁जमीन	-9.12538
▁बुट्टा	-9.12539
▁ठाउँ	-9.1254
▁कहीँ	-9.12543
▁निर्मल	-9.12545
ब्रह्म	-9.12546
▁अकेला	-9.12549
▁टुक्र	-9.12551
▁बाटामा	-9.12553
▁मान्छे	-9.12563
बुहारी	-9.12564
▁वाणी	-9.12566
▁गइन्	-9.12567
▁कुँद	-9.12613
▁नाउँ	-9.12624
▁अल्प	-9.12654
▁गिज्या	-9.12719
्थिन्	-9.12747
ुइँ	-9.13053
सिंह	-9.13352
दर्श	-9.15632
।	-9.21592
▁औषधि	-9.23639
▁तृष्णा	-9.23639
▁धोबिनी	-9.23639
▁स्मृति	-9.23639
▁जिन्दगी	-9.2364
▁निरन्तर	-9.2364
▁सूनसान	-9.2364
▁ताजूब	-9.2364
▁राम्री	-9.2364
▁बूढी	-9.2364
▁भीषण	-9.2364
▁राम्रा	-9.2364
▁आँधी	-9.2364
▁रहस्य	-9.2364
▁क्रूर	-9.23641
▁सचेत	-9.23641
▁सिँगार	-9.23642
▁इशार	-9.23643
▁समाधि	-9.23645
▁नजीक	-9.23645
▁विविध	-9.23645
▁दुगुर	-9.23648
▁बस्तिन	-9.23651
▁सुँघ	-9.23651
▁अनेक	-9.23652
▁वियोग	-9.23653
तृप्त	-9.23656
▁प्रभात	-9.23658
▁बाढी	-9.23659
▁शहीद	-9.23659
▁पुतली	-9.23666
▁व्योम	-9.23668
▁जलकण	-9.23686
▁तातो	-9.23693
▁खालि	-9.23705
▁कलकल	-9.23706
▁यस्ता	-9.2372
ुहुन्छ	-9.2374
ाओस्	-9.23743
▁बन्ध	-9.23748
▁तयार	-9.23942
तर्फ	-9.2432
कुटी	-9.27454
सुन्दर	-9.34689
ज्योति	-9.34696
▁बेहोश	-9.36139
▁रश्मि	-9.36139
▁अद्भुत	-9.3614
▁अनुभव	-9.3614
▁जिउँदो	-9.3614
▁झ्याउरे	-9.3614
▁टाकुरा	-9.3614
▁ढुक्कुर	-9.3614
▁क्रान्ति	-9.3614
▁दक्षिण	-9.3614
▁साँढे	-9.3614
▁स्वदेश	-9.3614
▁सदृश	-9.3614
▁आफ्ना	-9.3614
▁झलझल	-9.3614
▁बलिदान	-9.3614
▁निठुरी	-9.3614
▁मोहनी	-9.3614
▁सुकुमार	-9.3614
▁यात्रा	-9.36141
▁अग्नि	-9.36141
▁अविरल	-9.36141
▁छटपट	-9.36142
▁झलमल	-9.36143
▁बरबर	-9.36144
▁नवीन	-9.36147
▁यस्तै	-9.3615
▁चित्त	-9.36152
▁पत्ती	-9.36152
▁थोपा	-9.36154
▁सामु	-9.36155
▁वज्र	-9.36157
▁बहिनी	-9.36157
▁चिम्ल	-9.3616
▁फुस्क	-9.36259
ेथें	-9.36269
▁रहन्छ	-9.36449
भूमि	-9.49769
▁पीयूष	-9.50425
▁गौंथली	-9.50425
▁तैपनि	-9.50425
▁परिवर्तन	-9.50425
▁बाँसुरी	-9.50425
▁छिरबिर	-9.50425
‘	-10.94
‍	-10.954
औ	-10.9541
“	-10.9542
अ	-10.9543
