<pad>	0
<unk>	0
<s>	0
</s>	0
<0x00>	0
<0x01>	0
<0x02>	0
<0x03>	0
<0x04>	0
<0x05>	0
<0x06>	0
<0x07>	0
<0x08>	0
<0x09>	0
<0x0A>	0
<0x0B>	0
<0x0C>	0
<0x0D>	0
<0x0E>	0
<0x0F>	0
<0x10>	0
<0x11>	0
<0x12>	0
<0x13>	0
<0x14>	0
<0x15>	0
<0x16>	0
<0x17>	0
<0x18>	0
<0x19>	0
<0x1A>	0
<0x1B>	0
<0x1C>	0
<0x1D>	0
<0x1E>	0
<0x1F>	0
<0x20>	0
<0x21>	0
<0x22>	0
<0x23>	0
<0x24>	0
<0x25>	0
<0x26>	0
<0x27>	0
<0x28>	0
<0x29>	0
<0x2A>	0
<0x2B>	0
<0x2C>	0
<0x2D>	0
<0x2E>	0
<0x2F>	0
<0x30>	0
<0x31>	0
<0x32>	0
<0x33>	0
<0x34>	0
<0x35>	0
<0x36>	0
<0x37>	0
<0x38>	0
<0x39>	0
<0x3A>	0
<0x3B>	0
<0x3C>	0
<0x3D>	0
<0x3E>	0
<0x3F>	0
<0x40>	0
<0x41>	0
<0x42>	0
<0x43>	0
<0x44>	0
<0x45>	0
<0x46>	0
<0x47>	0
<0x48>	0
<0x49>	0
<0x4A>	0
<0x4B>	0
<0x4C>	0
<0x4D>	0
<0x4E>	0
<0x4F>	0
<0x50>	0
<0x51>	0
<0x52>	0
<0x53>	0
<0x54>	0
<0x55>	0
<0x56>	0
<0x57>	0
<0x58>	0
<0x59>	0
<0x5A>	0
<0x5B>	0
<0x5C>	0
<0x5D>	0
<0x5E>	0
<0x5F>	0
<0x60>	0
<0x61>	0
<0x62>	0
<0x63>	0
<0x64>	0
<0x65>	0
<0x66>	0
<0x67>	0
<0x68>	0
<0x69>	0
<0x6A>	0
<0x6B>	0
<0x6C>	0
<0x6D>	0
<0x6E>	0
<0x6F>	0
<0x70>	0
<0x71>	0
<0x72>	0
<0x73>	0
<0x74>	0
<0x75>	0
<0x76>	0
<0x77>	0
<0x78>	0
<0x79>	0
<0x7A>	0
<0x7B>	0
<0x7C>	0
<0x7D>	0
<0x7E>	0
<0x7F>	0
<0x80>	0
<0x81>	0
<0x82>	0
<0x83>	0
<0x84>	0
<0x85>	0
<0x86>	0
<0x87>	0
<0x88>	0
<0x89>	0
<0x8A>	0
<0x8B>	0
<0x8C>	0
<0x8D>	0
<0x8E>	0
<0x8F>	0
<0x90>	0
<0x91>	0
<0x92>	0
<0x93>	0
<0x94>	0
<0x95>	0
<0x96>	0
<0x97>	0
<0x98>	0
<0x99>	0
<0x9A>	0
<0x9B>	0
<0x9C>	0
<0x9D>	0
<0x9E>	0
<0x9F>	0
<0xA0>	0
<0xA1>	0
<0xA2>	0
<0xA3>	0
<0xA4>	0
<0xA5>	0
<0xA6>	0
<0xA7>	0
<0xA8>	0
<0xA9>	0
<0xAA>	0
<0xAB>	0
<0xAC>	0
<0xAD>	0
<0xAE>	0
<0xAF>	0
<0xB0>	0
<0xB1>	0
<0xB2>	0
<0xB3>	0
<0xB4>	0
<0xB5>	0
<0xB6>	0
<0xB7>	0
<0xB8>	0
<0xB9>	0
<0xBA>	0
<0xBB>	0
<0xBC>	0
<0xBD>	0
<0xBE>	0
<0xBF>	0
<0xC0>	0
<0xC1>	0
<0xC2>	0
<0xC3>	0
<0xC4>	0
<0xC5>	0
<0xC6>	0
<0xC7>	0
<0xC8>	0
<0xC9>	0
<0xCA>	0
<0xCB>	0
<0xCC>	0
<0xCD>	0
<0xCE>	0
<0xCF>	0
<0xD0>	0
<0xD1>	0
<0xD2>	0
<0xD3>	0
<0xD4>	0
<0xD5>	0
<0xD6>	0
<0xD7>	0
<0xD8>	0
<0xD9>	0
<0xDA>	0
<0xDB>	0
<0xDC>	0
<0xDD>	0
<0xDE>	0
<0xDF>	0
<0xE0>	0
<0xE1>	0
<0xE2>	0
<0xE3>	0
<0xE4>	0
<0xE5>	0
<0xE6>	0
<0xE7>	0
<0xE8>	0
<0xE9>	0
<0xEA>	0
<0xEB>	0
<0xEC>	0
<0xED>	0
<0xEE>	0
<0xEF>	0
<0xF0>	0
<0xF1>	0
<0xF2>	0
<0xF3>	0
<0xF4>	0
<0xF5>	0
<0xF6>	0
<0xF7>	0
<0xF8>	0
<0xF9>	0
<0xFA>	0
<0xFB>	0
<0xFC>	0
<0xFD>	0
<0xFE>	0
<0xFF>	0
को	-3.66186
।	-3.83404
,	-3.84619
मा	-3.95003
▁।	-4.04482
▁र	-4.31032
का	-4.57252
ले	-4.74927
▁छ	-4.82213
▁हो	-4.90652
▁	-5.01401
लाई	-5.13786
न	-5.17247
.	-5.18287
▁यो	-5.24047
ी	-5.32182
▁एक	-5.36351
▁पनि	-5.38571
▁•	-5.51538
हरू	-5.52633
र	-5.57038
क	-5.61624
▁यस	-5.63149
स	-5.63541
▁थियो	-5.69049
बाट	-5.73847
▁मा	-5.76534
ल	-5.78581
▁तथा	-5.79131
▁भएको	-5.80751
ा	-5.87382
-	-5.87492
म	-5.91099
▁छन्	-5.96071
▁थिए	-5.98818
े	-6.01478
▁रहेको	-6.05473
त	-6.07289
▁को	-6.10311
▁वा	-6.12273
▁लागि	-6.15655
▁भने	-6.18122
▁हुन्छ	-6.19924
▁अ	-6.27128
ता	-6.31238
▁गर्ने	-6.35918
ला	-6.37513
▁गर्न	-6.37539
▁वि	-6.42743
ज	-6.43677
प	-6.45536
▁रूपमा	-6.45537
▁विकास	-6.45843
व	-6.46546
ि	-6.47146
ट	-6.47269
▁हुन्	-6.47288
रा	-6.4773
▁आफ्नो	-6.47782
:	-6.47886
▁नेपाली	-6.49256
ं	-6.50682
▁नेपालको	-6.5346
▁सन्	-6.5463
्	-6.56083
हरूको	-6.57145
▁नेपाल	-6.57329
ै	-6.60957
▁न	-6.61569
द	-6.63353
हरु	-6.63762
ड	-6.64005
▁नै	-6.6477
री	-6.65182
ब	-6.66047
▁तर	-6.66676
▁गरेको	-6.69631
▁स	-6.70112
ग	-6.71043
ना	-6.71054
▁म	-6.71628
▁उनी	-6.72577
ली	-6.72949
ँ	-6.73274
▁उनले	-6.73813
▁गरिएको	-6.73964
▁गरे	-6.77779
▁!	-6.7847
▁यसको	-6.78825
य	-6.79409
न्	-6.79447
▁देखि	-6.79907
▁गरेका	-6.80811
▁वर्ष	-6.82186
ु	-6.82423
▁नाम	-6.84183
▁दिन	-6.84441
▁प	-6.84938
▁ब	-6.85601
▁अनुसार	-6.85854
▁हुने	-6.86415
▁आ	-6.86888
नी	-6.88222
ह	-6.88456
की	-6.88529
▁हुन	-6.8971
वि	-6.91035
्य	-6.92344
▁धेरै	-6.92807
ो	-6.92925
▁जिल्ला	-6.93611
▁क	-6.93848
▁एउटा	-6.94028
▁गरी	-6.95094
▁क्षेत्र	-6.953
▁भन्ने	-6.97159
▁गरिन्छ	-6.98043
ित	-6.98229
ेर	-6.98603
सँग	-6.98623
िक	-6.99477
▁पछि	-7.00347
▁उनको	-7.01268
s	-7.01496
▁कि	-7.01912
▁द	-7.03313
▁कुनै	-7.03662
▁बि	-7.04749
▁भए	-7.04798
▁सबै	-7.04874
स्	-7.05234
च	-7.05515
र्	-7.05613
'	-7.05728
वा	-7.06426
▁राज्य	-7.06509
▁समिति	-7.07432
▁त	-7.07756
भ	-7.07952
▁अवस्थित	-7.08171
▁का	-7.08524
▁भयो	-7.08651
▁जिल्लामा	-7.08816
"	-7.09286
▁जिल्लाको	-7.10196
▁राष्ट्रिय	-7.10939
्ने	-7.11049
श	-7.11152
▁अन्य	-7.11549
▁केही	-7.1186
▁गाउँ	-7.12017
▁"	-7.12404
ू	-7.12529
▁राजा	-7.13327
ौ	-7.14549
▁प्र	-7.14794
▁सि	-7.15137
▁पर्ने	-7.15277
▁प्रयोग	-7.15387
देखि	-7.1617
▁'	-7.16693
▁पहिलो	-7.17323
▁काम	-7.19376
हरूमा	-7.2025
▁भएका	-7.20265
▁नि	-7.2066
▁जन्म	-7.20927
▁आदि	-7.22345
ण	-7.22349
▁19	-7.23698
▁1	-7.23766
/	-7.24078
हरूले	-7.243
ने	-7.24308
▁भनिन्छ	-7.2449
छ	-7.2492
▁सम्म	-7.25674
▁रहेका	-7.25734
म्	-7.2589
ख	-7.2599
▁प्रमुख	-7.27151
▁ग	-7.27395
▁उ	-7.28367
सं	-7.28465
▁विभिन्न	-7.2937
▁-	-7.2966
ति	-7.298
द्वारा	-7.29873
्न	-7.30097
▁सु	-7.30336
▁फुटबल	-7.30491
सा	-7.30557
▁जुन	-7.31086
▁भन्दा	-7.32424
या	-7.32945
सम्म	-7.3429
ीय	-7.3481
सी	-7.35142
▁कार्य	-7.35654
▁जो	-7.36097
▁कारण	-7.36555
▁ह	-7.37022
ध	-7.37475
▁महिला	-7.38624
यो	-7.39072
▁मात्र	-7.39345
पुर	-7.39498
इ	-7.39542
▁त्यस	-7.39595
▁भाषा	-7.39984
पा	-7.39991
▁प्राप्त	-7.40656
▁2	-7.40739
ाइ	-7.40847
▁चलचित्र	-7.40908
▁के	-7.40938
लि	-7.41954
▁मन्दिर	-7.42276
▁दुई	-7.43184
▁इ	-7.43631
▁ए	-7.43784
▁गर्दछ	-7.44189
▁च	-7.45061
▁घर	-7.45226
रो	-7.4531
▁यसलाई	-7.45331
▁भारतीय	-7.45608
▁समय	-7.4569
▁ज	-7.45779
▁भाग	-7.4626
नि	-7.4647
ाई	-7.46896
▁पूर्व	-7.4702
▁|	-7.4705
ङ	-7.47115
▁यहाँ	-7.4741
थ	-7.47455
▁मध्य	-7.47552
▁क्षेत्रमा	-7.48423
▁स्थापना	-7.48584
▁कुरा	-7.49797
▁ल	-7.50176
्या	-7.50274
▁गरेर	-7.5062
▁यी	-7.507
▁3	-7.51127
▁मुख्य	-7.51195
▁पाइन्छ	-7.51317
▁रुपमा	-7.5138
▁गर्नु	-7.51463
▁ले	-7.51617
▁साथै	-7.51689
ङ्ग	-7.51774
▁लेख	-7.5184
▁सकिन्छ	-7.51997
▁हाल	-7.5204
▁वटा	-7.52117
हरूलाई	-7.52583
▁सं	-7.52829
▁नेपालमा	-7.52862
▁गा	-7.53754
ती	-7.55092
ई	-7.5554
▁भारतको	-7.55998
▁ख	-7.56136
▁5	-7.56772
लो	-7.56849
▁निर्माण	-7.5696
▁ठूलो	-7.57013
▁सा	-7.57016
मी	-7.57381
अ	-7.58084
–	-7.58189
ंग	-7.58245
▁पा	-7.58648
▁संवत्	-7.58692
उ	-7.5891
▁नगरपालिका	-7.59332
▁सबैभन्दा	-7.59507
▁कु	-7.59652
रि	-7.59814
पछि	-7.60063
e	-7.60805
ृ	-7.61517
▁मन	-7.61888
▁भारत	-7.6189
▁समेत	-7.62081
डा	-7.62286
डी	-7.62579
▁खेल	-7.62661
▁विश्व	-7.62963
कै	-7.63445
▁18	-7.63496
▁गर्दै	-7.63501
िन	-7.63796
▁व	-7.63868
▁उत्तर	-7.64234
रे	-7.64351
हा	-7.64771
▁गर्दा	-7.65034
▁6	-7.65068
▁भ	-7.65397
▁बा	-7.65596
▁धर्म	-7.65973
▁सेवा	-7.66002
▁छैन	-7.66172
फ	-7.66542
▁श्री	-7.66647
▁ई	-7.66918
▁बाट	-7.67172
ए	-7.67309
▁दक्षिण	-7.6788
▁यदि	-7.68425
▁अथवा	-7.68897
▁4	-7.69768
हि	-7.69836
▁प्रति	-7.6998
▁ओ	-7.70739
▁:	-7.71232
▁त्यो	-7.71311
▁सदस्य	-7.72103
▁सूचना	-7.72449
▁नदी	-7.72835
बा	-7.73056
▁समयमा	-7.73436
▁जनसङ्ख्या	-7.73888
टा	-7.74011
जी	-7.75095
▁the	-7.75302
ष	-7.75384
▁सालमा	-7.77055
जा	-7.77058
हरुको	-7.77444
ल्	-7.77803
o	-7.77841
बि	-7.7824
▁मु	-7.78759
दा	-7.79517
क्ष	-7.79616
▁गते	-7.79716
मि	-7.80068
▁जस्तै	-7.80093
▁राष्ट्र	-7.80383
गा	-7.8042
▁गरि	-7.80479
प्र	-7.80664
▁मानिन्छ	-7.81409
▁ना	-7.81423
िएको	-7.817
क्	-7.81784
▁बढी	-7.81913
▁मे	-7.82103
कु	-7.82271
▁पृष्ठ	-7.82439
▁कम	-7.82541
▁सो	-7.82955
▁तीन	-7.82998
▁10	-7.83826
ाउने	-7.84245
्र	-7.84652
▁प्रसिद्ध	-7.84695
िया	-7.84859
▁8	-7.85052
▁नयाँ	-7.85052
▁स्थान	-7.8508
▁उक्त	-7.85132
▁साल	-7.85931
▁पूजा	-7.86225
▁कुल	-7.86769
▁विश्वविद्यालय	-7.86801
▁एवं	-7.87532
▁जीवन	-7.88096
▁हुन्छन्	-7.8838
▁उनलाई	-7.88539
ः	-7.8854
ण्ड	-7.88997
▁काठमाडौं	-7.89249
▁7	-7.89402
▁9	-7.89742
ौं	-7.89801
▁शिक्षा	-7.90268
ेको	-7.90406
राज	-7.90443
▁भित्र	-7.90852
सि	-7.91006
▁विशेष	-7.91778
▁इतिहास	-7.91924
i	-7.92035
▁साथ	-7.92083
▁उप	-7.92435
▁जन	-7.92577
t	-7.92917
ठ	-7.93462
कार	-7.93485
▁यसले	-7.93581
▁टिम	-7.93667
रु	-7.94054
▁ती	-7.94274
▁प्राचीन	-7.94621
▁फ	-7.94665
▁जनगणना	-7.94779
▁राम	-7.94865
▁अञ्चलको	-7.95018
▁पुरुष	-7.9551
▁·	-7.9584
▁श	-7.95882
स्ट	-7.95902
▁ट	-7.9603
▁पर्दछ	-7.96213
ाउन	-7.96634
▁यसै	-7.96722
टी	-7.9708
▁खेलाडी	-7.97442
▁प्रकार	-7.97537
▁केन्द्र	-7.9779
▁पहिले	-7.9793
▁गीत	-7.97936
▁पानी	-7.98139
त्र	-7.98285
▁तपाईँ	-7.98333
▁अर्को	-7.99356
▁अन्तर्गत	-7.9936
▁देश	-7.99593
▁शब्द	-7.99815
▁राज	-7.99981
▁पश्चिम	-8.00035
के	-8.00057
▁बे	-8.00633
)	-8.00709
▁रोग	-8.00836
खा	-8.01171
▁आधारमा	-8.01408
▁अर्थ	-8.01581
▁पि	-8.01665
से	-8.01788
y	-8.01843
▁मि	-8.02077
▁उच्च	-8.02617
▁गाविस	-8.02673
▁राजनीतिक	-8.02895
▁शिव	-8.02933
▁20	-8.03033
आ	-8.03134
▁यसका	-8.03242
▁या	-8.03715
▁द्वारा	-8.03903
▁लाई	-8.04039
▁जा	-8.04111
टि	-8.04165
’	-8.04255
्यो	-8.04553
्व	-8.04936
्स	-8.05537
▁गर्छ	-8.05809
▁पटक	-8.05858
▁आएको	-8.0622
्दै	-8.06375
दी	-8.07061
▁जस्ता	-8.07299
▁व्यवस्था	-8.07379
▁गोल	-8.07446
कि	-8.07459
▁कथा	-8.07626
▁थापा	-8.07769
▁भएर	-8.0792
्दा	-8.08141
▁चार	-8.08194
▁से	-8.0822
▁अध्ययन	-8.08324
▁गर्दछन्	-8.08454
मै	-8.08645
िङ	-8.08653
▁प्रकाशित	-8.08775
▁महा	-8.08892
▁सफल	-8.08936
▁शहर	-8.09297
▁नगर	-8.09529
▁ठाउँमा	-8.09561
a	-8.09746
n	-8.10312
▁‘	-8.10412
▁भाषाको	-8.10493
▁भनेर	-8.1059
ान	-8.11152
▁12	-8.11496
त्	-8.11504
▁विद्यालय	-8.11753
▁हिन्दू	-8.11821
▁वर्ग	-8.12013
▁प्रकारको	-8.12845
▁जल	-8.12928
ियो	-8.13079
▁गो	-8.13664
▁ध	-8.13959
न्द	-8.13976
भन्दा	-8.13986
▁मध्ये	-8.14182
▁ला	-8.14316
ही	-8.14848
ाउ	-8.14946
ग्	-8.15021
▁अन्तर्राष्ट्रिय	-8.15045
▁उनका	-8.15058
▁लि	-8.15499
▁गाँउ	-8.1595
▁अफ	-8.16049
▁छोरा	-8.16184
▁जसको	-8.16195
▁हा	-8.16306
्छ	-8.16401
▁छन	-8.16474
0	-8.16519
▁जि	-8.16599
▁दोस्रो	-8.16602
पू	-8.16701
▁in	-8.17151
▁पुरस्कार	-8.17192
▁यसमा	-8.17463
द्ध	-8.17629
▁मृत्यु	-8.17657
▁सुन	-8.17891
▁सरकार	-8.17944
िय	-8.18028
▁रूप	-8.18104
▁चि	-8.18104
▁of	-8.18117
▁उल्लेख	-8.18524
▁प्रदान	-8.18626
र्स	-8.18924
मे	-8.19128
▁क्लब	-8.19159
▁शासन	-8.19276
▁ठाउँ	-8.19583
▁जसले	-8.1979
▁जना	-8.19952
▁भारतमा	-8.20161
▁सहर	-8.20354
ष्ट	-8.20457
नाथ	-8.20552
▁स्थानीय	-8.2056
▁संयुक्त	-8.20758
▁सक्छ	-8.20826
00	-8.2086
▁कृष्ण	-8.20878
शा	-8.20898
स्त	-8.20964
▁मानव	-8.21229
पर	-8.21872
▁क्रिकेट	-8.21906
▁15	-8.22222
d	-8.2227
▁ताल	-8.2252
▁विक्रम	-8.22531
मान	-8.2275
नु	-8.22793
्रो	-8.23098
्नु	-8.23198
▁?	-8.23306
▁पाइने	-8.23408
म्ब	-8.23451
▁जसमा	-8.23464
▁घोषणा	-8.23714
▁सम्पादन	-8.23714
▁17	-8.23715
▁डा	-8.23884
पी	-8.2401
न्ड	-8.24038
▁हजार	-8.24131
▁अधिकार	-8.24263
g	-8.24604
al	-8.24713
िन्छ	-8.24961
▁देव	-8.25299
▁झ	-8.25355
▁सुरु	-8.25694
c	-8.25751
▁हे	-8.25796
▁धार्मिक	-8.25914
सु	-8.25965
्यु	-8.26038
▁व्यक्ति	-8.26146
▁शक्ति	-8.26186
ङ्	-8.26485
शि	-8.26528
र्क	-8.26684
जन	-8.26687
▁भगवान	-8.26856
क्स	-8.26923
हरूका	-8.26949
पु	-8.27086
er	-8.27415
▁सिंह	-8.27958
▁आज	-8.28008
वाद	-8.28126
▁दल	-8.28472
▁11	-8.28613
ुवा	-8.28662
न्स	-8.29049
▁सम	-8.29055
▁युद्ध	-8.29516
▁गु	-8.29733
▁कार्यक्रम	-8.29801
▁क्षेत्रको	-8.29898
▁प्रधानमन्त्री	-8.29907
दि	-8.30098
▁अन्तिम	-8.30248
▁विवाह	-8.3045
भा	-8.30502
चा	-8.30518
▁सामाजिक	-8.30567
▁शाह	-8.30587
▁संविधान	-8.30688
गो	-8.30756
नो	-8.30951
▁आर्थिक	-8.30992
▁समाज	-8.31037
था	-8.31116
▁हि	-8.31379
▁ड	-8.31439
वर	-8.31448
▁सय	-8.31455
▁यस्तो	-8.32289
▁पत्रिकाको	-8.32291
▁उत्पादन	-8.32361
▁तल	-8.3245
▁देखिन्छ	-8.32501
▁थिइन्	-8.32688
▁बस	-8.32693
टे	-8.32722
▁य	-8.32887
▁बन	-8.33087
▁कम्पनी	-8.33267
▁16	-8.3331
वे	-8.33467
▁लामो	-8.33544
▁स्थित	-8.33689
▁माथि	-8.33787
▁लिग	-8.33793
ar	-8.33809
▁राजधानी	-8.34137
▁पार्टी	-8.34203
▁प्रथम	-8.34373
▁गरियो	-8.34426
▁राणा	-8.34528
ेश्वर	-8.34674
▁समूह	-8.34973
▁पर्व	-8.35192
▁संस्था	-8.35365
▁बेला	-8.35473
▁पार	-8.35562
▁कविता	-8.35672
▁नेपालका	-8.35809
घ	-8.35812
▁थाले	-8.35916
सो	-8.35932
▁अनि	-8.36024
यस	-8.36059
▁विचार	-8.36137
▁फल	-8.36151
2	-8.3643
▁उपन्यास	-8.36469
िने	-8.36526
▁घ	-8.36567
▁a	-8.36757
तिर	-8.37374
धि	-8.37376
▁14	-8.37409
▁पर्छ	-8.37522
िका	-8.3769
▁भा	-8.377
▁प्रत्येक	-8.37706
▁ने	-8.37853
▁हुनु	-8.37872
▁परिवार	-8.37904
▁प्रकाशन	-8.37973
▁भई	-8.37978
रण	-8.38045
कोट	-8.38092
▁बु	-8.38098
न्त	-8.38145
जि	-8.38565
ाएर	-8.38741
▁कर	-8.38787
▁प्रदेश	-8.38825
▁राम्रो	-8.38883
▁क्याम्पस	-8.38891
▁बनेको	-8.39049
▁मानिस	-8.39066
ed	-8.39185
▁वन	-8.39185
काे	-8.39349
▁सभा	-8.39423
▁त्यसपछि	-8.39633
वादी	-8.39713
ष्	-8.39715
मो	-8.39738
▁जब	-8.39912
▁स्व	-8.3999
▁बो	-8.40048
भित्र	-8.40548
▁त्यहाँ	-8.40846
▁दिए	-8.40948
▁हुँदै	-8.4099
▁प्रवेश	-8.41245
▁बसोबास	-8.41407
▁अहिले	-8.41413
▁पाँच	-8.41534
झ	-8.41764
▁महिना	-8.41944
▁दु	-8.41959
▁ता	-8.42523
ेका	-8.42563
▁भू	-8.42648
▁त्यसको	-8.42759
▁तिर	-8.42859
पि	-8.42932
म्प	-8.42987
▁त्यसैले	-8.42997
▁बजार	-8.43055
र्ड	-8.4314
▁साहित्य	-8.43312
▁महत्वपूर्ण	-8.43447
▁कार्यालय	-8.43636
▁ऐतिहासिक	-8.43952
w	-8.44069
मु	-8.44181
डे	-8.44274
▁लाख	-8.4433
▁काल	-8.44786
▁स्थानमा	-8.45004
▁जाति	-8.45118
▁लोक	-8.45413
िन्	-8.45498
▁अतिरिक्त	-8.45512
m	-8.45646
भि	-8.45703
▁सूर्य	-8.45954
▁जसलाई	-8.45955
▁हिमाल	-8.46229
▁मूल	-8.46303
ौँ	-8.46323
▁पत्रिका	-8.46393
▁13	-8.46535
▁पर	-8.46681
|	-8.46719
ेल	-8.46791
▁परि	-8.47162
k	-8.47253
▁अस्पताल	-8.47273
गर	-8.47314
▁नामक	-8.47319
▁डि	-8.47338
▁पूर्ण	-8.47355
▁गर	-8.47679
▁दि	-8.4773
▁सहयोग	-8.47777
b	-8.47971
▁ठ	-8.48322
▁लगभग	-8.48435
▁लिखित	-8.48525
▁दा	-8.48555
▁प्रहरी	-8.48635
जु	-8.48783
▁विज्ञान	-8.48961
▁सँग	-8.49054
ओ	-8.49057
▁परम्परा	-8.49349
▁जान	-8.4935
▁दिने	-8.49419
▁सेना	-8.50229
▁दुवै	-8.50713
▁सुधार	-8.50749
▁हुँदा	-8.50818
▁कलेज	-8.51046
कर	-8.51089
p	-8.51089
▁यात्रा	-8.51111
▁सानो	-8.51141
हु	-8.51267
▁फूल	-8.51469
ing	-8.51516
▁अञ्चल	-8.51802
1	-8.52066
▁मिटर	-8.52218
20	-8.52253
▁अगाडि	-8.52377
▁आइ	-8.52381
▁स्थापित	-8.52437
▁ज्ञान	-8.52473
हरुलाई	-8.52583
▁सञ्चालन	-8.52751
▁मान	-8.5277
▁पो	-8.52778
टो	-8.52804
▁बारेमा	-8.52977
▁अब	-8.53
▁पद	-8.53043
▁निकै	-8.53408
▁आफ्ना	-8.5346
डि	-8.535
▁जु	-8.53573
▁ढाँचा	-8.53579
▁त्रिभुवन	-8.53694
▁वेद	-8.54011
▁0	-8.54022
▁तह	-8.54034
▁आमा	-8.5413
▁विषय	-8.54226
▁सम्पदा	-8.54264
ढ	-8.54427
▁भु	-8.54469
िर	-8.54529
▁अनु	-8.5459
▁विश्वास	-8.54668
ार	-8.54985
हरुले	-8.5531
▁तत्कालीन	-8.55319
▁पूर्वी	-8.55427
गु	-8.55494
▁क्या	-8.55507
u	-8.55562
▁वडा	-8.55612
▁ति	-8.55649
▁शक	-8.55685
ाय	-8.55842
बे	-8.5585
▁to	-8.56035
राम	-8.56146
▁भूमिका	-8.56204
or	-8.56439
▁संघ	-8.56442
बी	-8.56465
▁बर्ष	-8.56512
▁2001	-8.56709
▁मत	-8.56992
हरुमा	-8.57268
▁संस्कृति	-8.57338
▁चा	-8.57537
रू	-8.57736
देव	-8.57802
4	-8.57808
▁बौद्ध	-8.57854
▁मल्ल	-8.58057
▁अघि	-8.58172
▁अभिनेत्री	-8.58349
▁मो	-8.58419
▁ऋषि	-8.58487
▁बल	-8.58531
नै	-8.58535
द्र	-8.58609
▁नं	-8.58692
▁रचना	-8.58696
▁मह	-8.58733
्रा	-8.58743
▁अध्यक्ष	-8.58843
▁माओवादी	-8.58946
▁बीच	-8.58999
▁गरिने	-8.59024
▁A	-8.59157
हर	-8.59356
▁चाँडै	-8.59547
▁लेखिएको	-8.59565
▁खान	-8.59685
न्छ	-8.59711
▁सामान्य	-8.59998
▁स्थल	-8.60131
▁वर्षको	-8.60145
▁मिल	-8.60195
▁अप	-8.60198
▁खोला	-8.60199
▁सहमत	-8.60207
▁S	-8.60358
▁संस्कृत	-8.60536
▁प्रतिशत	-8.60964
्दछ	-8.60972
▁पुस्तक	-8.61158
वार	-8.61235
त्य	-8.61435
रिया	-8.61451
▁यही	-8.61719
▁बाल	-8.61769
▁करिब	-8.61782
▁क्रममा	-8.61905
▁भएपछि	-8.61918
▁आउने	-8.61974
▁खा	-8.62064
9	-8.6212
▁मानिसहरू	-8.62362
▁s	-8.62369
▁यसरी	-8.62389
▁शुरु	-8.6241
▁भागमा	-8.6243
▁पु	-8.62445
ते	-8.62614
▁जहाँ	-8.62661
भर	-8.62706
्वा	-8.62796
माथि	-8.62798
▁उहाँ	-8.62904
▁दरबार	-8.62942
▁पर्वत	-8.63137
▁सर	-8.63351
▁लग	-8.63405
▁चु	-8.63416
हो	-8.63606
▁निर्वाचन	-8.63643
▁देवी	-8.63806
▁फा	-8.64012
▁हामी	-8.64025
▁मान्यता	-8.64068
लु	-8.64153
▁जनसंख्या	-8.64278
▁प्रतियोगिता	-8.64292
▁जाने	-8.64404
▁आन्दोलन	-8.64543
त्व	-8.6458
बहादुर	-8.6458
▁जस्तो	-8.64855
3	-8.64906
▁प्रभाव	-8.64958
▁ढ	-8.65
▁दर्शन	-8.65067
re	-8.65121
▁किलोमिटर	-8.65124
▁गर्छन्	-8.65209
▁डे	-8.65289
िस	-8.65305
वी	-8.65322
▁रे	-8.65451
▁राख्न	-8.6551
▁अवस्था	-8.65541
5	-8.65577
श्	-8.6561
▁रु	-8.65641
▁भाषामा	-8.65692
▁हेर्न	-8.65856
▁थर	-8.66075
▁गाउँपालिका	-8.66206
▁हेर्नुहोला	-8.66299
▁बी	-8.66342
ेन	-8.66681
▁चलन	-8.66712
▁सदरमुकाम	-8.6673
योग	-8.67139
▁नियम	-8.67152
ाँ	-8.67186
▁लिएर	-8.67273
°	-8.67488
▁हु	-8.67537
▁लगायत	-8.67589
▁पे	-8.67649
▁मेटाउन	-8.6768
▁प्रणाली	-8.67708
▁चीन	-8.67731
▁संसार	-8.67791
▁हात	-8.68234
ास	-8.68518
▁कृषि	-8.68582
▁परिवर्तन	-8.68582
▁रि	-8.68599
फा	-8.68619
चार	-8.68644
▁त्यस्तै	-8.69023
%	-8.69079
▁थ	-8.69083
▁मेटाउनु	-8.69106
r	-8.69301
▁त्यही	-8.69362
▁बनाउन	-8.69471
▁पक्ष	-8.69523
▁वार्तालापमा	-8.69576
▁समस्या	-8.69688
ियन	-8.69698
▁त्यसै	-8.69746
चे	-8.69972
▁हर	-8.70014
जे	-8.70128
in	-8.70154
▁नामले	-8.70202
▁पुरानो	-8.70263
▁क्षेत्रफल	-8.70399
पो	-8.7043
▁अवस्थामा	-8.70468
धा	-8.70508
▁आएका	-8.70636
▁तपाईँले	-8.70681
▁रेडियो	-8.70704
▁राष्ट्रपति	-8.70837
▁पहाडी	-8.70945
▁लिन	-8.71097
तर्फ	-8.71187
▁चौ	-8.71236
सन	-8.71269
▁गएको	-8.71287
▁25	-8.71335
en	-8.71348
बु	-8.71509
▁बाहिर	-8.71766
देश	-8.71966
▁सम्पूर्ण	-8.72174
▁अमेरिका	-8.72383
▁थप	-8.72428
▁तर्फ	-8.72433
;	-8.72552
गत	-8.72609
▁वर्तमान	-8.72621
▁कवि	-8.72699
िएका	-8.727
▁रो	-8.72792
▁जनता	-8.72901
स्क	-8.72915
▁यु	-8.72984
▁सहित	-8.73249
वन	-8.73312
▁पहाड	-8.73443
▁पुत्र	-8.73462
हार	-8.7349
▁संग	-8.73595
एको	-8.73671
टर	-8.73673
▁समाचार	-8.7389
ुर	-8.74133
▁एसिया	-8.74176
▁फि	-8.74302
ाल	-8.74317
▁सम्बन्ध	-8.74323
▁विभाजन	-8.74469
l	-8.74491
▁आधुनिक	-8.74635
▁गरेकी	-8.74637
▁आयोजना	-8.74707
▁अमेरिकी	-8.74937
तु	-8.75097
▁निश्चित	-8.75171
क्त	-8.75274
दे	-8.75313
▁बोल	-8.75575
ंड	-8.75594
न्ज	-8.75639
▁अनेक	-8.75853
▁भएकाले	-8.7589
▁सात	-8.75918
यर	-8.76115
त्त	-8.7613
▁बुद्ध	-8.7619
िए	-8.76343
▁सन	-8.76357
सित	-8.76363
▁जे	-8.76629
ची	-8.76692
दु	-8.76793
ात्मक	-8.7697
प्रसाद	-8.76987
▁शान्ति	-8.7714
▁लिएको	-8.77602
▁खोज	-8.77728
ल्ला	-8.78022
▁उपत्यका	-8.78022
नगर	-8.78048
▁आउँछ	-8.78068
मन	-8.78389
▁सङ्गठन	-8.78394
▁बैंक	-8.78511
दो	-8.78521
▁उपलब्ध	-8.78611
▁अङ्ग्रेजी	-8.78977
▁विजय	-8.79021
▁लाग्ने	-8.79089
पाल	-8.79252
th	-8.79257
र्थ	-8.79294
▁प्रधान	-8.79345
us	-8.79599
an	-8.79658
▁वे	-8.79711
▁कृति	-8.79753
▁स्वास्थ्य	-8.79936
ic	-8.79951
छन्	-8.79981
▁निम्न	-8.79983
▁खस	-8.80041
▁प्रचलित	-8.80106
मध्ये	-8.80156
सिंह	-8.80449
▁अभिनय	-8.80478
▁पात	-8.80479
▁सम्पन्न	-8.80479
दार	-8.8049
▁बाटो	-8.80493
▁हुनाले	-8.80559
नेपाल	-8.80634
तो	-8.80867
▁पिता	-8.80954
▁निर्णय	-8.80974
▁अस	-8.8101
▁30	-8.81041
▁सडक	-8.81129
▁अधिकांश	-8.81223
▁तेस्रो	-8.81223
▁प्राकृतिक	-8.81348
▁धन	-8.81381
▁पर्न	-8.8144
▁विष्णु	-8.81598
▁“	-8.81698
▁पृथ्वी	-8.81721
▁चन्द्र	-8.81722
▁चिन	-8.81783
बल	-8.81856
दिन	-8.8194
▁रहे	-8.81944
▁कला	-8.81983
▁अधिक	-8.82016
पूर्व	-8.8203
▁वंश	-8.8207
▁राज्यको	-8.82084
▁जम्मा	-8.82107
दान	-8.82199
le	-8.82211
▁उपचार	-8.82394
▁सह	-8.82395
▁कारणले	-8.82538
v	-8.82668
▁अभि	-8.82762
▁जोड	-8.82797
▁छोरी	-8.82921
▁बनाइएको	-8.83007
भाग	-8.8302
्यू	-8.83072
▁चित्र	-8.8308
ोप	-8.83138
पे	-8.83152
▁ग्रन्थ	-8.83253
▁हरेक	-8.83327
▁श्रेष्ठ	-8.83367
द्	-8.834
▁आक्रमण	-8.83494
▁हुनुहुन्छ	-8.83525
▁नाच	-8.83578
▁आधार	-8.83799
▁लेखक	-8.83822
▁गोत्र	-8.83961
▁क्यालेण्डर	-8.84006
▁युवा	-8.84016
▁बने	-8.84052
▁कोइराला	-8.84134
▁उद्योग	-8.8414
वास	-8.84147
्‍	-8.84255
▁सरकारी	-8.84322
शास्त्र	-8.84489
देवी	-8.84523
ाए	-8.84574
▁कर्णाली	-8.84652
▁पदार्थ	-8.84663
▁परेको	-8.84683
6	-8.84716
f	-8.84758
▁साझा	-8.84797
▁यहाँको	-8.84865
शी	-8.84893
▁गए	-8.85077
िम	-8.85264
▁ब्या	-8.85294
▁खेलमा	-8.85356
▁बजारमा	-8.85382
▁नर	-8.85403
▁सार्वजनिक	-8.85427
सँगै	-8.85544
▁ललितपुर	-8.85572
यु	-8.85615
▁आधारित	-8.85652
▁सम्बन्धित	-8.85654
▁वस्तु	-8.85675
▁गई	-8.85682
▁संख्या	-8.85703
न्ट	-8.85729
▁मै	-8.85913
▁अर्थात्	-8.85914
पूर्ण	-8.85932
▁केन्द्रीय	-8.85976
ठा	-8.86156
▁बनाउने	-8.86178
▁किन	-8.86196
▁घट	-8.86322
▁प्रा	-8.86357
▁नैं	-8.866
▁उनि	-8.86782
▁नव	-8.87074
डो	-8.87106
ताको	-8.87198
▁ब्राह्मण	-8.87284
▁अरु	-8.87334
▁प्रेम	-8.87374
▁2011	-8.87418
न्न	-8.8754
दर	-8.87577
▁गुण	-8.87593
▁व्रत	-8.87747
कृत	-8.87909
▁कायम	-8.87944
सार	-8.88063
▁योगदान	-8.88077
निया	-8.88107
▁चल	-8.88113
▁तयार	-8.88115
ब्	-8.88147
▁भवन	-8.88247
at	-8.88314
▁बन्न	-8.88447
▁सम्मान	-8.88459
▁2014	-8.88622
▁भै	-8.88713
▁उत्कृष्ट	-8.88734
णी	-8.88814
▁पुन	-8.88986
▁महेन्द्र	-8.89102
▁तिब्बत	-8.89294
▁व्यक्त	-8.89307
ल्ल	-8.89345
िल	-8.89373
ेट	-8.89454
▁संरक्षण	-8.89545
▁पाल्पा	-8.89545
▁–	-8.89755
्रे	-8.89817
▁भेट	-8.8983
▁नेता	-8.89892
▁उत्तरी	-8.89895
▁पश्चिममा	-8.89906
कल	-8.89939
▁सालको	-8.90038
चित	-8.90227
▁पूरा	-8.90598
ञ्ज	-8.90635
▁टु	-8.90701
▁गएर	-8.90782
▁मुख	-8.90801
खु	-8.90849
▁सर्व	-8.91057
▁गर्यो	-8.91131
▁लागी	-8.91172
र्म	-8.91275
▁चे	-8.91284
स्थान	-8.91503
▁बढ	-8.91631
▁जीव	-8.91658
▁देवता	-8.918
▁मार्ग	-8.9184
▁जान्छ	-8.91893
▁प्रस्तुत	-8.91997
िनी	-8.92071
बर	-8.92105
▁मिस	-8.92106
▁जय	-8.92177
हे	-8.9233
▁औं	-8.92386
▁मेरो	-8.92429
▁प्रतिनिधित्व	-8.92447
▁हिन्दु	-8.92458
▁गति	-8.92527
ाएको	-8.92557
▁सक्ने	-8.92796
▁गुरु	-8.92919
ान्त	-8.92934
▁लु	-8.92934
▁दश	-8.93065
गी	-8.93196
▁पाकिस्तान	-8.93245
▁सांस्कृतिक	-8.93443
▁फरक	-8.93478
▁चढ	-8.93499
▁पोखरी	-8.93537
▁सरकारले	-8.93555
▁उत्पन्न	-8.93558
▁भि	-8.93643
्त	-8.93962
▁जी	-8.93989
▁महत्व	-8.93993
▁आवश्यक	-8.94052
क्षा	-8.9411
▁व्य	-8.94126
h	-8.9429
▁चो	-8.94297
पत्र	-8.94355
▁प्रसाद	-8.9503
▁चिनिन्छ	-8.95094
▁and	-8.95156
8	-8.95161
▁विभाग	-8.95161
▁आए	-8.95301
▁आफ्नै	-8.95305
▁देशको	-8.95345
पन	-8.95635
▁इन्द्र	-8.95701
▁सुरू	-8.95709
▁प्राय	-8.95711
ज्	-8.95762
वल	-8.95785
काल	-8.95902
हन	-8.95902
▁सुन्दर	-8.95945
▁रात	-8.96014
र्ट	-8.96098
▁सगरमाथा	-8.9613
▁लो	-8.96253
▁अमेरिकन	-8.96275
▁दर	-8.96275
▁सी	-8.96282
es	-8.96317
▁लामा	-8.96355
▁कानुन	-8.96368
▁ठुलो	-8.96428
7	-8.96573
प्रति	-8.96626
▁रुप	-8.96645
चल	-8.96696
▁प्रतिक्रिया	-8.9672
एस	-8.96729
▁शा	-8.96759
पति	-8.96785
▁सन्तान	-8.96885
▁वनस्पति	-8.97002
▁नागरिक	-8.9701
कर्ता	-8.97246
▁अलग	-8.97272
▁भाइ	-8.97436
▁उपाधि	-8.97454
नन्	-8.97574
▁राखिएको	-8.97617
ध्य	-8.97727
▁भर	-8.97729
▁वैज्ञानिक	-8.97736
▁बागमती	-8.97737
ra	-8.97761
▁प्रकाशक	-8.97816
▁अन्त्य	-8.97828
▁हरि	-8.97972
▁हुँदैन	-8.98004
▁छिन्	-8.98174
▁हाम्रो	-8.98178
▁विस्तार	-8.98179
▁गौतम	-8.98185
▁भनी	-8.98337
▁जस	-8.98375
▁पर्याप्त	-8.98474
▁आँखा	-8.98644
▁यस्ता	-8.98713
▁खु	-8.9879
▁अति	-8.98799
र्ज	-8.9886
▁अन	-8.98871
▁चराको	-8.99045
▁रहन	-8.99248
▁उपन्यासकार	-8.99293
▁सत्य	-8.99313
▁21	-8.99377
▁सार	-8.99435
▁बाहेक	-8.99492
▁वीर	-8.99493
▁पुराण	-8.9972
▁हेर	-8.99726
ेन्द्र	-8.99742
▁इन्	-8.9976
यन	-8.99794
”	-8.99817
▁सिद्धान्त	-8.99825
▁उपयोग	-8.99828
ur	-8.99962
▁आचार्य	-8.99968
▁कप	-8.99987
ri	-9.0003
▁सैनिक	-9.00122
बार	-9.00344
▁पहिला	-9.00572
ेज	-9.00674
तर	-9.00727
▁हिन्दी	-9.00827
▁दक्षिणमा	-9.0083
▁उठ	-9.01025
▁50	-9.01074
▁अन्तर	-9.01098
▁पाए	-9.01213
▁स्थिति	-9.01242
▁एम	-9.01361
▁देख	-9.01428
ंस	-9.01551
▁समुदाय	-9.01629
▁फ्रान्स	-9.01775
▁शर्मा	-9.01795
▁टा	-9.01839
▁शास्त्र	-9.01875
▁मगर	-9.02021
▁पूर्वमा	-9.02056
▁स्	-9.02116
▁भक्तपुर	-9.02126
क्क	-9.02132
संग	-9.02232
▁गठन	-9.02252
▁मन्त्र	-9.02265
▁फिफा	-9.02273
▁मेला	-9.02336
▁युग	-9.02359
▁घटना	-9.02387
▁M	-9.02553
▁तारा	-9.02563
व्य	-9.02575
▁नौ	-9.02665
▁स्तर	-9.02675
▁विश्वकप	-9.02871
▁वर्णन	-9.02887
▁ईश्वर	-9.02891
जो	-9.0297
्री	-9.03039
▁P	-9.03095
▁सम्	-9.03213
▁नाग	-9.03281
▁गोरखा	-9.03322
घाट	-9.03358
▁24	-9.03386
▁लगायतका	-9.03417
▁2007	-9.03523
▁खो	-9.03613
▁माघ	-9.0363
▁पुरा	-9.03677
▁पवित्र	-9.03803
▁नीति	-9.0381
▁तिमी	-9.0389
▁ल्याएको	-9.04008
▁स्वतन्त्र	-9.04051
▁भारतका	-9.04051
▁चाल	-9.04126
▁अर्थशास्त्र	-9.04156
▁बहु	-9.04199
▁क्रान्ति	-9.04218
▁इलाम	-9.04287
▁तिन	-9.0437
▁टि	-9.04412
▁खण्डमा	-9.04545
▁क्षमता	-9.04588
▁प्रचलन	-9.04746
▁चुनाव	-9.04747
चि	-9.04761
वान	-9.04897
▁होइन	-9.04906
ाउनु	-9.05012
▁अरू	-9.0506
▁सक्नुहुन्छ	-9.05061
on	-9.05068
▁निकाय	-9.0507
▁सक्रिय	-9.05076
▁विद्यार्थी	-9.0522
लाइ	-9.05262
ाउँदै	-9.05308
▁यिनी	-9.05317
▁आई	-9.05342
▁थुप्रै	-9.05379
▁संस्कार	-9.05538
▁घरमा	-9.05558
▁उत्तरमा	-9.05608
▁था	-9.05665
क्र	-9.05744
▁योजना	-9.05792
▁मान्छे	-9.0584
▁सप्तर्षि	-9.05856
बो	-9.05978
▁देखा	-9.06126
टार	-9.06267
▁नारायण	-9.06302
▁चर्चित	-9.06356
▁लिने	-9.06438
चो	-9.06447
▁कोशी	-9.0649
▁राख्ने	-9.06771
ट्ट	-9.06772
▁नदीको	-9.06791
▁करोड	-9.06834
च्च	-9.06921
▁जानकारी	-9.07
▁शाखा	-9.07017
▁भो	-9.07058
▁पूर्वका	-9.07091
▁अधिकारी	-9.0716
▁टे	-9.0727
▁साना	-9.07331
▁केवल	-9.07378
▁ईसाको	-9.07444
▁सुरक्षा	-9.07479
▁27	-9.07543
▁लुम्बिनी	-9.07628
▁जुम्ला	-9.07628
▁28	-9.07794
▁गर्‍यो	-9.07804
▁झापा	-9.0783
▁लोकप्रिय	-9.07953
▁साम्राज्य	-9.07953
▁धु	-9.08004
▁बनाउनु	-9.08008
▁मन्त्री	-9.08113
▁26	-9.08148
▁दिएको	-9.08233
▁तु	-9.08268
▁सम्बत	-9.08285
▁गरिएका	-9.08325
मय	-9.0837
▁फु	-9.08393
▁ठूला	-9.08417
्ला	-9.08485
▁जन्मदेखि	-9.08623
▁लिपि	-9.08669
▁विधि	-9.08778
▁राजमार्ग	-9.08791
▁मुलुक	-9.0885
▁क्र	-9.08868
▁कै	-9.08877
▁नगरपालिकाको	-9.09045
्रि	-9.09077
▁जेल	-9.09081
र्न	-9.09295
▁जोडिएको	-9.09319
्ती	-9.09335
भएको	-9.09365
▁आरम्भ	-9.09436
्छन्	-9.09621
▁बहादुर	-9.09774
▁औ	-9.09947
▁व्यापार	-9.10012
▁लागे	-9.10088
▁कुरामा	-9.10123
▁वेब	-9.10166
▁झु	-9.10237
▁नुवाकोट	-9.10262
▁जति	-9.10276
▁2016	-9.10286
▁पोर्टल	-9.10338
▁पोखरा	-9.10349
▁प्रविधि	-9.10399
▁विरुद्ध	-9.10463
▁भनिएको	-9.10503
▁माध्यमिक	-9.10507
▁अनुमान	-9.10513
ोर	-9.10589
▁काठ	-9.10623
▁शरीर	-9.10668
▁प्रकारका	-9.10731
▁गाविसमा	-9.10877
50	-9.10906
▁प्रयास	-9.10933
▁त्रि	-9.10935
▁फिल्म	-9.10939
▁यिनीहरू	-9.1094
▁यौन	-9.10945
▁w	-9.1095
▁गि	-9.11003
▁काव्य	-9.11033
▁सक	-9.11074
▁मिलेर	-9.11096
ल्स	-9.11111
▁टोली	-9.11246
▁निर्वाचित	-9.11268
▁नाटक	-9.11275
▁प्रक्रिया	-9.11287
िज	-9.11294
अनुसार	-9.11312
ेपछि	-9.11368
▁भूमि	-9.11409
▁कुराको	-9.11493
िएर	-9.11584
ro	-9.11608
▁मूर्ति	-9.1167
▁मी	-9.11671
▁ध्यान	-9.11957
▁दे	-9.1198
▁उद्देश्य	-9.12096
▁आठ	-9.12247
चर	-9.12258
म्बा	-9.12304
▁खेती	-9.12337
,000	-9.12343
▁ग्रह	-9.12411
▁गरेपछि	-9.12487
▁अा	-9.12519
▁बनेका	-9.12528
ठी	-9.12537
▁थिएन	-9.12544
▁देख्न	-9.12561
▁हट	-9.12635
▁अभियान	-9.12637
चु	-9.12804
▁रहने	-9.1286
▁22	-9.12907
19	-9.1292
स्व	-9.1296
दै	-9.13003
▁कर्म	-9.13345
▁रह	-9.1335
▁यू	-9.13398
▁2015	-9.1351
बीच	-9.13619
घर	-9.13708
▁सृजना	-9.13827
▁तराई	-9.13838
▁अन्त	-9.13885
▁योग	-9.13965
▁अफ्रिका	-9.14001
▁परे	-9.14009
▁जग	-9.14083
▁ब्र	-9.14104
▁थाहा	-9.14117
िलो	-9.14269
▁वै	-9.14325
▁पुराना	-9.14504
▁उमेर	-9.14519
▁स्कूल	-9.1453
र्ण	-9.14759
▁राजनीति	-9.14855
ष्ठ	-9.14881
‍	-9.14928
▁छु	-9.15051
▁न्याय	-9.15058
क्षेत्र	-9.15102
▁m	-9.15159
ेश	-9.15165
▁कोष	-9.15212
▁रानी	-9.15286
▁एकपटक	-9.15299
▁फुल	-9.15377
▁काँ	-9.15379
▁अर्	-9.15681
▁बिच	-9.15685
▁अङ्ग्रेजीमा	-9.15704
न्ध	-9.15709
st	-9.15816
▁दिएका	-9.15869
ीकरण	-9.15876
▁एस	-9.15877
▁जित	-9.15932
▁f	-9.15936
ाउँछ	-9.15995
▁भोजपुर	-9.15996
▁हुनेछ	-9.16001
ेड	-9.16074
पनि	-9.16115
▁for	-9.16143
ंद	-9.16144
शील	-9.16269
▁फे	-9.16271
▁सञ्चार	-9.16283
▁कांग्रेस	-9.16319
▁डो	-9.16373
▁शि	-9.16407
▁जनवरी	-9.16456
▁गाई	-9.16549
▁आधिकारिक	-9.16632
▁संस्करण	-9.16632
▁सर्प	-9.16634
▁बच्चा	-9.16635
उन	-9.16737
▁संसद	-9.16763
▁प्रदर्शन	-9.16847
▁नेतृत्व	-9.1685
▁आय	-9.16851
भाव	-9.16947
▁उमेरमा	-9.16994
गे	-9.17093
▁/	-9.17098
▁अव	-9.17104
▁कालो	-9.17118
▁भौतिक	-9.17167
स्ता	-9.17326
▁बङ्गलादेश	-9.17346
▁2017	-9.17377
ाना	-9.1742
▁c	-9.17423
▁तो	-9.1748
▁इन	-9.17553
ha	-9.17642
▁प्रबन्धक	-9.17678
▁सिमाना	-9.17743
▁प्रकृति	-9.17744
▁अत्यन्त	-9.17751
ोल	-9.17789
▁T	-9.17868
▁फेरि	-9.17879
▁उनीहरू	-9.1788
▁कल	-9.17937
▁बन्द	-9.17954
▁माग	-9.17972
▁बस्ने	-9.18045
ल्याण्ड	-9.18126
▁उदाहरण	-9.18426
▁संरचना	-9.18438
▁स्क	-9.18481
▁काठमाडौंमा	-9.18501
भु	-9.18616
बाद	-9.18646
रूप	-9.18729
▁पत्र	-9.18734
▁पुगेको	-9.18795
▁मैदान	-9.18993
▁मार्च	-9.19068
ीत	-9.19083
▁समान	-9.19151
▁वातावरण	-9.19153
स्थ	-9.19178
▁निम्ति	-9.19185
▁जारी	-9.19207
▁भन्न	-9.19288
▁पाल	-9.19301
▁साइ	-9.19343
▁पुगे	-9.19371
ायो	-9.19383
▁मापदण्ड	-9.19426
ch	-9.1949
▁खेल्ने	-9.19495
▁प्रतिनिधि	-9.195
un	-9.19558
ाइन्छ	-9.19578
▁पश्चिमाञ्चल	-9.19644
▁भाव	-9.19688
▁तब	-9.19735
त्री	-9.1976
▁विश्वमा	-9.19844
▁प्रत्यक्ष	-9.19884
is	-9.19933
▁फर्क	-9.19962
▁प्रमाण	-9.19975
▁यहाँका	-9.19987
स्थित	-9.20109
तः	-9.20115
▁स्वर	-9.20271
रह	-9.20335
•	-9.20349
▁डिग्री	-9.20444
खोला	-9.20452
▁बह	-9.2063
द्व	-9.20769
▁रहन्छ	-9.20784
▁ईसा	-9.20863
▁आकार	-9.20876
चन	-9.20918
▁समावेश	-9.20993
▁पछी	-9.21028
▁लागेको	-9.21073
ज्ञ	-9.21077
▁भएकोले	-9.21087
▁कहिले	-9.21182
ेस	-9.21278
▁जात	-9.21302
▁भइ	-9.2132
▁फैल	-9.2152
▁महाभारत	-9.21751
र्ग	-9.21786
हित	-9.21896
▁राई	-9.21911
17	-9.21958
▁फैलिएको	-9.21966
हाँ	-9.222
▁भनेको	-9.22209
हरा	-9.22274
▁अल	-9.22417
िंग	-9.22439
▁अभिलेख	-9.22492
▁2008	-9.22511
ों	-9.22679
▁यिनको	-9.22693
▁पुर	-9.22731
▁पञ्च	-9.22898
षा	-9.22947
▁जर्मनी	-9.22986
▁दुइ	-9.23039
▁महाकाव्य	-9.23057
▁जात्रा	-9.23108
▁कलाकार	-9.23137
▁गाविसको	-9.23239
▁बनाएर	-9.23247
▁बनाएको	-9.23432
गि	-9.23435
▁गण्डकी	-9.23627
ाङ	-9.23664
द्द	-9.23712
▁क्रम	-9.23792
षण	-9.23802
▁रंग	-9.23821
▁2013	-9.23837
शु	-9.23942
▁बीचमा	-9.24027
ाएका	-9.24143
▁धारा	-9.24212
▁अनुसन्धान	-9.24228
▁दो	-9.24236
▁लागू	-9.24253
▁सङ्घ	-9.2441
30	-9.24463
▁बेलायत	-9.24484
▁महादेव	-9.24486
▁भट्ट	-9.24525
▁सर्	-9.24532
▁ब्रिटिश	-9.24585
▁स्वरूप	-9.2462
श्री	-9.24627
▁आफू	-9.24671
▁डिसेम्बर	-9.24777
▁मोरङ	-9.24821
▁अर्थात	-9.24832
▁लक्ष्मी	-9.2485
10	-9.24854
िट	-9.24866
▁सम्बन्धन	-9.24931
▁पाउने	-9.2509
18	-9.25124
▁शमशेर	-9.25319
▁दिइएको	-9.25366
घा	-9.25384
▁हत्या	-9.25397
▁सूची	-9.25407
▁माटो	-9.25451
▁तेल	-9.25469
▁टेलिभिजन	-9.25552
▁2012	-9.25581
▁बर्	-9.25611
▁देशमा	-9.25678
▁सुरुवात	-9.25751
▁जिल्लाहरू	-9.25931
थे	-9.25963
्थ	-9.25986
ुभयो	-9.25997
फे	-9.25998
ुल	-9.25999
it	-9.26014
14	-9.26114
▁प्रकाश	-9.26159
▁is	-9.26219
क्रम	-9.26249
▁घुम	-9.26346
▁प्रतियोगितामा	-9.26372
▁पठ	-9.2639
▁स्ट	-9.26391
ce	-9.26445
धु	-9.2646
▁निर्	-9.26482
कारी	-9.26503
▁नम्बर	-9.26635
▁be	-9.26638
▁रातो	-9.26751
ाइन	-9.26775
ालय	-9.26797
▁आफैले	-9.26804
हरुका	-9.26809
▁23	-9.26843
▁वर्ण	-9.2691
▁अभिनेता	-9.26922
▁विशाल	-9.26932
▁साधारण	-9.26938
ऊ	-9.27029
▁त्यसलाई	-9.27184
ार्थ	-9.27286
▁2010	-9.27349
शन	-9.27454
▁ऐन	-9.27456
▁प्रजाति	-9.27677
▁नदि	-9.27785
स्थल	-9.27795
▁बर	-9.27867
▁मर्	-9.27872
▁सुर	-9.27882
▁•27	-9.27891
▁•26	-9.27939
▁•24	-9.27943
▁•22	-9.27959
▁•13	-9.27981
▁•28	-9.27988
▁गणना	-9.28004
▁•21	-9.28013
▁•25	-9.28037
▁•23	-9.28063
▁•16	-9.28096
▁•11	-9.28102
▁कृपया	-9.28111
▁•12	-9.28111
▁जनकपुर	-9.28112
▁•15	-9.28135
▁•18	-9.28144
▁•14	-9.28148
▁•10	-9.28152
▁•17	-9.28152
निक	-9.28153
▁•19	-9.28203
▁मन्दिरमा	-9.28218
कालमा	-9.28281
▁•8	-9.2829
▁•7	-9.28296
रहेको	-9.28305
▁•1	-9.28365
▁•6	-9.28369
▁संघको	-9.28381
▁केहि	-9.28408
▁सीमा	-9.28419
▁किरात	-9.28429
▁•3	-9.28445
▁आयो	-9.28463
▁बै	-9.28471
15	-9.28484
▁•9	-9.28485
▁•5	-9.28487
▁•4	-9.2852
▁हिमालय	-9.28534
▁•2	-9.28551
▁•20	-9.28602
▁पी	-9.28639
▁धनकुटा	-9.28711
▁सिधै	-9.28712
▁गुगल	-9.2873
▁पर्दछन्	-9.28754
▁गणेश	-9.28868
▁आत्मा	-9.28878
गढ	-9.28933
कुल	-9.28945
?	-9.29076
▁खास	-9.29086
▁स्वर्ग	-9.29088
▁शुक्ल	-9.29118
▁हुदै	-9.29169
▁आएर	-9.29498
▁B	-9.29508
िला	-9.29598
▁शुरू	-9.29731
▁गुफा	-9.29765
समेत	-9.29893
▁सहभागी	-9.29939
▁नामबाट	-9.29989
हरूबाट	-9.30014
ाले	-9.30066
▁गर्छन	-9.30292
▁सुख	-9.30381
युक्त	-9.30392
ङ्गा	-9.30417
▁गान्धी	-9.30489
▁माया	-9.30543
▁अक्षर	-9.30547
ोट	-9.30671
▁C	-9.30733
ट्	-9.30777
▁प्या	-9.30832
▁गुरुङ	-9.30989
▁सरकारको	-9.3099
▁आवश्यकता	-9.31045
▁वर्षा	-9.31095
▁स्या	-9.31311
ेक	-9.31324
ध्या	-9.31352
▁भन्नाले	-9.31367
लाल	-9.31402
खर	-9.31432
वाह	-9.31432
▁नियन्त्रण	-9.31496
वाल	-9.31533
▁क्षेत्रका	-9.31542
▁मदन	-9.31576
थी	-9.3158
ct	-9.31589
▁व्यवस्थापन	-9.31611
▁गराउने	-9.31622
फि	-9.31705
▁प्रकाशनले	-9.31708
A	-9.31744
▁मिनेट	-9.3178
▁सुविधा	-9.31783
▁पुनः	-9.31825
टन	-9.31847
▁एच	-9.31953
▁E	-9.32017
दल	-9.32044
▁जापान	-9.32107
▁संगीत	-9.32179
ब्र	-9.32191
▁मात्रै	-9.32271
▁बत	-9.32318
▁बाबु	-9.32455
ad	-9.32457
▁पश्चिमी	-9.32564
▁आफूलाई	-9.32608
▁सम्झ	-9.32615
ाइएको	-9.32669
▁स्वतन्त्रता	-9.32694
लार्इ	-9.32758
▁ते	-9.32794
▁जेठ	-9.328
‌	-9.32806
▁सके	-9.32811
▁श्राद्ध	-9.32875
सर	-9.33058
▁गृह	-9.33064
ly	-9.33096
▁राजनीतिमा	-9.33225
ङ्क	-9.33251
▁अक्टोबर	-9.33435
▁दुबै	-9.33446
▁स्पष्ट	-9.33459
जर	-9.33474
▁डोटी	-9.33477
▁जंगल	-9.3348
S	-9.33636
▁एउटै	-9.33645
▁दैनिक	-9.33646
▁प्रजातन्त्र	-9.33647
हान	-9.33725
ेन्ट	-9.33798
▁सेतो	-9.33912
▁सम्बन्धी	-9.33934
▁वृद्धि	-9.33951
▁बटन	-9.33982
▁साधन	-9.34031
x	-9.34061
सहित	-9.34145
▁क्षेत्री	-9.34148
ूर	-9.34256
▁पक	-9.34256
▁मात्रामा	-9.34301
▁लगाउने	-9.34319
▁पर्यटकीय	-9.34324
र्द	-9.34358
il	-9.34372
म्भ	-9.34405
▁टाढा	-9.34504
ञ्	-9.34571
▁चरण	-9.34674
▁अग्लो	-9.34705
ये	-9.34709
▁भ्रमण	-9.34722
▁गयो	-9.34768
भी	-9.34768
सिया	-9.34786
▁निर्देशक	-9.3486
▁पुग्न	-9.34888
▁खाने	-9.34898
ुङ	-9.34901
▁विमानस्थल	-9.34924
▁लगानी	-9.34954
स्प	-9.34964
▁सकिनेछ	-9.34967
▁प्रारम्भ	-9.3504
C	-9.35126
बन्ध	-9.35296
▁अवधिमा	-9.35332
▁पहिचान	-9.35345
▁रूपले	-9.35348
12	-9.35406
धन	-9.35444
धार	-9.35509
▁नवलपरासी	-9.3556
▁सङ्क्रमण	-9.3556
▁स्रोत	-9.35582
यौ	-9.35703
▁लिङ्कहरू	-9.35775
▁2018	-9.35811
▁विधा	-9.35865
▁सब	-9.35969
▁सभ्यता	-9.35991
▁40	-9.36077
▁सन्धि	-9.3616
▁संलग्न	-9.36207
▁की	-9.36261
▁निकाल्न	-9.36277
▁कसरी	-9.36311
▁खेलकुद	-9.36329
▁संचालन	-9.36423
▁चितवन	-9.36423
▁सम्पत्ति	-9.36427
▁नपरेको	-9.36464
ल्ड	-9.36604
▁मध्यमाञ्चल	-9.3664
▁दिवस	-9.36642
te	-9.36683
▁बनाए	-9.36699
चन्द्र	-9.367
ढा	-9.36853
▁खाना	-9.36968
▁टो	-9.36971
▁अरब	-9.3706
▁शैली	-9.37178
▁दशक	-9.37244
▁एकै	-9.37269
▁सक्नुहुनेछ	-9.37294
रुप	-9.37294
▁विशेषता	-9.37341
▁मेटाउने	-9.37343
▁सर्वाधिक	-9.37353
▁निर्वाचनमा	-9.37368
िता	-9.37395
▁मुक्त	-9.37493
▁आकाश	-9.3753
▁29	-9.37595
16	-9.37627
▁गर्नुहोला	-9.37732
पश्चिम	-9.37745
▁दिल्ली	-9.37748
▁100	-9.3783
▁एल्बम	-9.37951
▁विषयमा	-9.37956
▁2068	-9.37966
▁निर्देशन	-9.37986
▁यि	-9.38004
11	-9.38037
▁पू	-9.38085
▁एल	-9.38091
▁है	-9.38131
▁हुनुहुन्न	-9.38172
▁पढ	-9.38213
▁चरा	-9.38286
▁p	-9.38354
▁आधारको	-9.38404
वत	-9.38409
▁गराए	-9.3856
प्	-9.38609
▁दक्षिणी	-9.38697
▁b	-9.38726
▁पश्चात	-9.38833
▁अनुपयुक्त	-9.38835
ँदा	-9.38885
न्द्र	-9.38966
▁नहटाउनुहोला	-9.39058
▁सिन्धुपाल्चोक	-9.39058
▁हासिल	-9.39058
▁राखिसकेपछि	-9.39059
▁प्रशासकद्वारा	-9.39073
▁माध्यम	-9.39084
▁सामग्री	-9.39111
▁मार्फत	-9.39112
▁घण्टा	-9.39124
▁थिच्नुहोला	-9.3928
▁दैलेख	-9.3928
▁युटिसीमा	-9.3928
▁हटाउनुहोला	-9.3928
▁पष्ठलाई	-9.39504
▁मेटाउनुभन्दा	-9.39563
▁re	-9.39622
क्ट	-9.39628
▁अंग	-9.39643
▁प्रबन्धकहरूको	-9.39691
च्छ	-9.39693
▁उड	-9.39711
▁विद्युत	-9.39727
!	-9.39758
▁जम	-9.39822
मन्त्री	-9.39914
टु	-9.3995
▁ब्रह्म	-9.3999
्थे	-9.40032
▁जोशी	-9.40069
▁पाउ	-9.40083
▁म्या	-9.40107
▁लगहरू	-9.40113
▁गणतन्त्र	-9.4018
▁उत्	-9.40213
▁बिहान	-9.40288
ter	-9.40318
▁लगाए	-9.40532
▁सत्ता	-9.40569
▁बस्न	-9.40583
▁चलचित्रमा	-9.40635
▁जमीन	-9.40639
▁बाघ	-9.40646
▁गंगा	-9.4073
▁तर्फबाट	-9.40818
ent	-9.40839
▁भौगोलिक	-9.40853
▁उत्पत्ति	-9.40857
्म	-9.40862
▁उसको	-9.4087
▁पात्र	-9.40893
▁निबन्ध	-9.40932
▁मापदण्डमा	-9.40967
जित	-9.4097
लिन	-9.40976
▁सुनसरी	-9.41082
पात	-9.41222
ल्य	-9.41286
▁क्ष	-9.41593
▁अझै	-9.41686
▁शाही	-9.41701
▁जनावर	-9.41723
▁सामान्यतया	-9.41764
▁The	-9.4177
▁दरवार	-9.41802
्दछन्	-9.41883
▁इतिहासमा	-9.41891
▁व्यवसाय	-9.41958
▁सेप्टेम्बर	-9.41992
▁विकसित	-9.41994
▁सम्मेलन	-9.41994
ुक	-9.42077
▁युद्धमा	-9.42154
▁विश्वको	-9.42185
▁सतह	-9.42215
ाचार्य	-9.42299
▁कूल	-9.42314
▁अमर	-9.42346
▁युरोप	-9.4237
कन	-9.42376
लै	-9.42457
▁समाजमा	-9.42459
ाउँदा	-9.42475
▁आत्म	-9.42497
▁राख	-9.42607
▁भट्टराई	-9.42687
ंगा	-9.4269
▁बनाई	-9.42736
▁कक्षा	-9.42749
▁माता	-9.42758
▁आँ	-9.42787
46	-9.42848
▁यति	-9.42888
▁2006	-9.42949
सू	-9.42951
▁अझ	-9.42952
▁सू	-9.43092
िङ्ग	-9.43155
▁नेवार	-9.43199
▁गुल्मी	-9.43228
भे	-9.4337
▁समुह	-9.43377
▁डाँडा	-9.43381
▁तीर्थ	-9.43439
▁तामाङ	-9.43477
▁जातिको	-9.43505
...	-9.43567
▁पद्म	-9.43644
▁भूभाग	-9.4365
▁माछा	-9.43695
▁उहाँको	-9.43696
▁यस्तै	-9.43717
▁भनि	-9.43739
▁गरिन्	-9.43821
▁अङ्ग	-9.43821
▁इन्टरनेट	-9.43843
▁मानेर	-9.43874
सुर	-9.43879
र्य	-9.43939
▁कालमा	-9.44057
▁उहाँले	-9.4414
▁ग्रहण	-9.44185
▁t	-9.44218
म्म	-9.44237
चाल	-9.44327
▁रगत	-9.44334
▁पुर्व	-9.44395
▁सुबेदी	-9.44545
ाउँछन्	-9.44573
पोखरी	-9.44609
▁हिमाली	-9.44692
ation	-9.4472
▁कपिलवस्तु	-9.4478
▁सामूहिक	-9.4478
▁भिडियो	-9.4479
▁पुग्यो	-9.44809
▁लिए	-9.44821
▁पर्	-9.44825
एन	-9.44872
गाउँ	-9.44902
सम	-9.44922
▁यातायात	-9.45016
▁रेकर्ड	-9.45016
▁नामाकरण	-9.45017
▁मनाउने	-9.4503
स्य	-9.45156
ब्ल	-9.45228
द्य	-9.45239
▁सिक्किम	-9.45252
▁सिक	-9.45314
▁G	-9.45452
▁सङ्ख्या	-9.45493
▁हक	-9.45573
ाङ्क	-9.456
दैन	-9.45659
▁पुल	-9.4569
ेसन	-9.4583
▁मुक्ति	-9.4586
▁लेखन	-9.45919
▁समुद्र	-9.4593
▁H	-9.4606
▁स्प	-9.46103
▁•29	-9.46186
23	-9.46191
j	-9.46204
▁मूल्य	-9.46268
▁निधन	-9.46292
▁व्यक्तिहरू	-9.46305
▁बिहार	-9.46314
▁क्ल	-9.46355
▁चौथो	-9.46457
▁साँ	-9.46506
▁मैले	-9.46642
▁हेर्दा	-9.46733
भो	-9.46834
▁पार्टीको	-9.46885
▁नियुक्त	-9.46891
▁कट	-9.46913
▁सबभन्दा	-9.46956
▁मन्त्रालय	-9.47034
▁अन्न	-9.47143
▁जिल्लाका	-9.47154
▁रकम	-9.47155
त्ति	-9.47317
▁शब्दको	-9.47349
▁धादिङ	-9.47427
्ह	-9.47448
▁अवधि	-9.47453
▁तिनको	-9.47468
▁मानिएको	-9.47521
▁प्रदेशको	-9.47625
▁एफ	-9.47642
▁छोड	-9.47643
▁शासक	-9.47662
▁रुख	-9.47699
▁बन्यो	-9.47753
ियर	-9.47767
▁शताब्दी	-9.47776
et	-9.47786
खे	-9.4786
▁निजी	-9.47876
▁तेह्रथुम	-9.4789
▁78	-9.47953
ol	-9.47986
▁काभ्रेपलाञ्चोक	-9.48134
▁पृष्ठको	-9.48152
▁परम्परागत	-9.48179
▁57	-9.48197
▁गैर	-9.4822
▁चर्चा	-9.48227
▁मध्येको	-9.48274
▁देखेर	-9.48278
एल	-9.48293
पत	-9.48315
क्ति	-9.48341
ग्रह	-9.48347
ग्न	-9.48478
ho	-9.48488
ँग	-9.48558
▁लड	-9.48561
▁पाइन्छन्	-9.48707
ंश	-9.48708
▁रत्न	-9.48738
थि	-9.48791
▁मण्डेला	-9.48867
▁अछाम	-9.48869
▁खुला	-9.48884
▁अप्रिल	-9.48944
▁स्नातक	-9.4911
▁च्याम्पियनसिप	-9.49113
▁प्रस्ताव	-9.49113
▁F	-9.4912
▁विसं	-9.49136
▁2009	-9.49143
माई	-9.49213
वेद	-9.49248
▁छुट	-9.49263
औं	-9.4928
ल्ट	-9.49314
▁लाग्छ	-9.49331
▁ः	-9.49349
▁D	-9.49353
▁सहायक	-9.49359
▁विजेता	-9.4936
li	-9.49393
▁जनताको	-9.49446
एका	-9.49466
▁अर्का	-9.49591
▁वैदिक	-9.49606
▁ऊ	-9.49691
▁हावा	-9.49777
lo	-9.49797
▁दिनु	-9.49828
▁पराजित	-9.4986
▁संग्रह	-9.49902
वटा	-9.49986
▁पञ्जाब	-9.50102
▁शैक्षिक	-9.50102
▁कुन	-9.50261
फी	-9.50287
छा	-9.50294
▁चन्द	-9.50316
la	-9.50341
▁प्रख्यात	-9.50352
▁अधिराज्य	-9.50352
▁तिथि	-9.50371
▁बसेको	-9.504
▁समाप्त	-9.50407
▁भावना	-9.50438
▁महान	-9.50474
▁कति	-9.50491
ta	-9.50517
सभा	-9.50559
रिक	-9.50581
ाङ्ग	-9.50778
▁मलाई	-9.50932
40	-9.51039
▁पाण्डे	-9.51103
▁रक्षा	-9.51133
▁अग्र	-9.5122
▁सागर	-9.51266
▁यज्ञ	-9.51314
▁दृश्य	-9.5132
▁बज	-9.51422
▁भोग	-9.51522
▁फो	-9.5155
▁कम्प्युटर	-9.51604
▁पत्नी	-9.51604
▁तथ्य	-9.51635
्यौ	-9.51655
▁प्रायः	-9.5167
▁सिद्ध	-9.51735
टिक	-9.51748
▁सोही	-9.51765
▁नभएको	-9.51784
com	-9.51805
▁रङ्ग	-9.51868
ul	-9.51892
▁झा	-9.5194
▁एन	-9.51963
▁डु	-9.52003
प्त	-9.52105
▁प्रदर्शित	-9.52109
▁मन्दिरको	-9.52147
▁गङ्गा	-9.52196
▁मेची	-9.52197
ल्क	-9.52246
▁सक्छन्	-9.52294
▁बाजा	-9.52413
▁जीवनको	-9.52474
▁तत्कालिन	-9.52491
¥	-9.52618
▁लिमिटेड	-9.52618
▁विद्रोह	-9.52618
▁उन	-9.52619
▁च्या	-9.52646
वाट	-9.52674
▁अमेरिकाको	-9.52724
▁I	-9.52735
कालीन	-9.52891
▁जुलाई	-9.52941
▁धान	-9.52945
ैया	-9.52946
जस्ता	-9.53143
ढी	-9.53163
रूपमा	-9.53239
▁भिन्न	-9.53282
▁पेशा	-9.53314
▁आदी	-9.53328
▁बेल	-9.53358
▁निकुञ्ज	-9.53385
ीक	-9.53398
▁गायक	-9.53517
लिङ्ग	-9.53567
▁बालबालिका	-9.53586
▁लाल	-9.53635
▁हप्ता	-9.53642
फल	-9.53756
ia	-9.53837
पानी	-9.5386
ग्रा	-9.53886
▁कतिपय	-9.539
▁प्रसारण	-9.53935
▁तिब्बती	-9.53955
▁अनुवाद	-9.53969
▁मोहन	-9.54073
ाइल	-9.54085
▁खर्च	-9.54166
▁पूर्वाञ्चल	-9.54417
▁दूध	-9.54418
▁नेकपा	-9.54418
▁पृथ्वीनारायण	-9.54428
मुख	-9.54439
▁चाह	-9.54462
▁मुटु	-9.54466
▁पाइ	-9.54507
▁मल	-9.54523
▁गोर्खा	-9.54557
▁गे	-9.54564
ल्लो	-9.54617
▁स्पेन	-9.54656
▁छाप	-9.54665
▁मौसम	-9.5469
लोक	-9.54699
ट्र	-9.54713
▁आदिमा	-9.54764
06	-9.54815
se	-9.54842
▁प्रान्त	-9.54904
▁बराबर	-9.54938
▁एसियाली	-9.54944
▁साहित्यकार	-9.55059
▁उपनिषद	-9.55198
▁धर्मको	-9.55256
▁गुरू	-9.55297
इस	-9.5561
▁कुमार	-9.55628
▁निकाल	-9.5569
▁L	-9.55804
▁निर	-9.55956
यान	-9.56016
▁उपयुक्त	-9.56033
▁बुझ	-9.56116
ियम	-9.56119
लगायत	-9.56138
्ता	-9.56179
▁ऐ	-9.56248
▁2005	-9.56281
▁त्यति	-9.56288
▁2019	-9.563
क्षण	-9.56345
▁ट्र	-9.56359
▁गर्	-9.56359
्फ	-9.56366
25	-9.56509
म्बर	-9.56509
▁नोभेम्बर	-9.56514
▁किसिमको	-9.56514
▁पर्यटन	-9.56514
ेली	-9.56571
▁उपर्युक्त	-9.56779
ङ्गो	-9.56792
▁अनुभव	-9.56794
▁2004	-9.56815
▁असर	-9.56897
▁1.	-9.56922
ूल	-9.56955
▁भाषाहरू	-9.56981
▁2.	-9.57012
▁झि	-9.57058
▁हालसम्म	-9.57103
▁पुग	-9.57128
शो	-9.57193
▁पाउन	-9.57249
एम	-9.57286
▁हुम्ला	-9.57312
▁अर्जुन	-9.57317
▁यिनले	-9.57319
▁भे	-9.57358
▁परिवारमा	-9.57413
▁शुद्ध	-9.5743
▁नजिक	-9.57456
▁व्यापक	-9.57584
▁आर्य	-9.57603
▁औषधि	-9.57624
▁गर्नुभएको	-9.57668
▁सकेको	-9.5767
▁भक्ति	-9.57847
▁स्वयं	-9.57848
ेन्स	-9.57899
▁महिलाहरू	-9.57968
▁आयोग	-9.57996
▁देउ	-9.58001
करण	-9.58044
▁श्र	-9.58083
▁अस्तित्व	-9.58116
▁वार्षिक	-9.58117
▁परिचित	-9.58159
लिया	-9.5826
▁बिभिन्न	-9.58423
▁गरिन	-9.58453
बारे	-9.58542
▁सारा	-9.58545
खण्ड	-9.58583
▁तापक्रम	-9.58664
▁पाएका	-9.58671
▁साहित्यिक	-9.58673
ग्राम	-9.5869
73	-9.58773
▁31	-9.58877
▁साथी	-9.5888
▁क्षेत्रीय	-9.5889
चित्र	-9.58912
▁कब्जा	-9.58927
▁किताब	-9.58935
▁राशि	-9.58945
▁मानिसको	-9.59019
▁ढाक	-9.59043
शे	-9.59068
▁58	-9.59148
जना	-9.59189
▁व्यवहार	-9.59199
गल	-9.59216
्का	-9.59229
▁आफु	-9.59256
▁मुल	-9.59343
▁फर	-9.59415
ोड	-9.59425
▁संस्थान	-9.59446
▁सेन	-9.5946
▁दिनमा	-9.59494
▁बनाएका	-9.59527
▁विवरण	-9.59552
स्तु	-9.59573
गम	-9.59632
ताका	-9.59674
▁गर्भ	-9.59689
▁मुद्रा	-9.59745
▁संघर्ष	-9.59763
▁राखेर	-9.59916
▁तार	-9.5997
▁प्रभावित	-9.59985
▁अर्घाखाँची	-9.60019
▁दुःख	-9.60019
▁किसान	-9.60091
र्ति	-9.60122
▁उनीहरूको	-9.60292
▁फेब्रुअरी	-9.60293
▁कसै	-9.60395
ैं	-9.60407
am	-9.60428
त्रि	-9.60462
णा	-9.60464
▁अवतार	-9.60582
▁श्रोत	-9.60609
▁मण्डल	-9.60629
▁घो	-9.60631
▁मनाइन्छ	-9.60646
▁माध्यमबाट	-9.60693
▁हिम	-9.60719
▁नेतृत्वमा	-9.60783
▁सुन्न	-9.60804
▁ग्राम	-9.6084
▁घोषित	-9.60848
▁ऋतु	-9.60856
▁सफलता	-9.60942
त्मक	-9.60964
ाली	-9.61175
▁देखिने	-9.61277
▁प्रचार	-9.61322
▁खोल	-9.61343
कला	-9.61412
▁राजाले	-9.61495
ंक	-9.61523
▁महत्त्वपूर्ण	-9.61686
सल	-9.6169
▁नजीक	-9.61695
▁व्याख्या	-9.61706
पक्ष	-9.61724
▁अवसर	-9.61727
पक	-9.61748
▁पाटन	-9.61756
▁काठमाडौंको	-9.61797
▁तट	-9.61841
▁आम	-9.61909
▁मौलिक	-9.61963
▁बाँध	-9.61973
▁बस्ती	-9.62059
▁पारे	-9.62071
▁मू	-9.6208
▁पल्ट	-9.62156
as	-9.62245
श्व	-9.62319
अघि	-9.62331
▁2000	-9.62385
▁N	-9.62432
▁यद्यपि	-9.62519
▁कालिकोट	-9.62519
ताल	-9.62522
▁गर्दथे	-9.62533
▁थाल्यो	-9.62547
▁विवाद	-9.62586
▁छाला	-9.62586
▁मोडल	-9.62643
.5	-9.62671
▁or	-9.62725
तम	-9.62801
▁डलर	-9.62805
▁हार	-9.62838
▁परिषद	-9.62848
▁चाड	-9.62851
▁कन्	-9.63057
▁बैठक	-9.63084
▁कार	-9.63121
▁तिनीहरू	-9.63162
▁विरोध	-9.63168
▁बमोजिम	-9.63175
▁अल्	-9.63279
di	-9.63297
um	-9.63314
▁चैत	-9.63334
▁नृत्य	-9.63366
▁हावापानी	-9.63375
▁आशा	-9.63377
▁ग्या	-9.63425
▁स्वा	-9.63435
▁लेखे	-9.63452
▁तल्लो	-9.63482
▁महाराज	-9.63483
▁विदेशी	-9.63566
▁देखी	-9.63652
▁कतै	-9.63734
▁शुक्र	-9.63738
▁तपाईं	-9.6379
▁लाभ	-9.63798
▁नो	-9.63802
▁साम	-9.63811
▁on	-9.63873
▁पौराणिक	-9.63935
▁जग्गा	-9.63935
▁काजी	-9.63986
▁रह्यो	-9.63995
ाइने	-9.64003
▁दिन्छ	-9.6402
▁कर्	-9.6404
▁आगो	-9.64045
▁जगत	-9.64056
नाम	-9.64074
फु	-9.64139
इतिहास	-9.64151
▁अवार्ड	-9.64222
me	-9.64294
ँदै	-9.64351
▁इच्छा	-9.64368
▁वी	-9.64412
▁हल	-9.64422
▁मार	-9.64441
ट्टा	-9.64492
▁ठाँउ	-9.64507
▁स्वीकार	-9.64511
▁श्रीकृष्ण	-9.64534
▁संसदीय	-9.64612
ोन	-9.64628
स्त्र	-9.64635
्के	-9.64639
▁नेपालले	-9.6464
▁वो	-9.64645
▁लाग	-9.64742
▁असार	-9.6476
भार	-9.64771
65	-9.64784
यल	-9.64823
▁निरन्तर	-9.64873
77	-9.64883
▁बाँकी	-9.64886
▁बालक	-9.64987
▁संस्थाको	-9.65071
▁खण्ड	-9.65077
▁वैशाख	-9.65083
▁एवम्	-9.65084
▁फलाम	-9.65107
▁मुगु	-9.65208
▁स्कुल	-9.65444
प्रे	-9.65454
ल्ली	-9.65473
▁हाँस	-9.65479
▁गराउन	-9.65482
▁जिम्मेवारी	-9.65494
▁न्यू	-9.65511
▁महिनामा	-9.65535
▁ढु	-9.65549
▁विदेश	-9.65583
E	-9.656
▁क्षेत्रलाई	-9.65666
63	-9.65681
▁बलि	-9.65702
▁सुक	-9.65706
ँडा	-9.65756
21	-9.65802
मर	-9.65839
जात	-9.65896
र्ष	-9.65911
▁पाप	-9.65977
▁गर्थे	-9.65992
▁सेन्ट	-9.66034
▁कपडा	-9.6605
कुमार	-9.6612
िना	-9.66145
मार्ग	-9.66166
मेल	-9.66182
थो	-9.6622
▁अश्लील	-9.66244
▁रूपन्देही	-9.66244
▁दिएर	-9.66251
न्दा	-9.66395
54	-9.66431
▁संस्थापक	-9.66564
न्ती	-9.66659
्ग	-9.66666
▁बुद्धि	-9.6667
▁कमल	-9.66716
▁विश्वका	-9.66718
▁गौ	-9.66739
▁वितरण	-9.66831
▁योग्य	-9.66834
▁गर्दछन	-9.66843
कथा	-9.6686
प्रा	-9.66897
▁चर	-9.66918
▁फागुन	-9.67124
गण	-9.67135
पछी	-9.67229
▁दुर्	-9.67231
▁बेलामा	-9.67251
▁एड	-9.6726
▁de	-9.6726
▁गर्नका	-9.67273
▁अग्नि	-9.6742
▁बराल	-9.67491
बारी	-9.6751
▁नियन्त्रणमा	-9.6751
▁जहाज	-9.67528
ुपर्छ	-9.67545
▁दस	-9.67572
▁दलको	-9.67579
▁35	-9.67635
न्छन्	-9.67711
▁सहायता	-9.67715
▁रसुवा	-9.67765
▁विष	-9.67776
▁बताए	-9.6783
▁मान्ने	-9.67844
ir	-9.67868
प्ट	-9.67878
▁शो	-9.6795
▁सहरहरू	-9.67996
▁फाइनल	-9.68012
▁कम्युनिष्ट	-9.68012
▁थु	-9.68059
ङ्ख	-9.68097
▁पञ्चायत	-9.68121
▁छो	-9.68259
▁कार्तिक	-9.68305
38	-9.6831
▁स्नान	-9.68314
▁मर	-9.68367
िरहेको	-9.68387
धर	-9.68434
▁पदक	-9.68495
▁मोह	-9.68534
▁कस	-9.68548
्‍य	-9.68567
़	-9.68608
▁अदालत	-9.68608
▁परियोजना	-9.68608
▁सोभियत	-9.68608
▁विविध	-9.68623
▁शिर	-9.68641
67	-9.68645
बद्ध	-9.68649
ख्या	-9.68658
▁गण	-9.68801
▁दाङ	-9.68813
एर	-9.68849
▁डोल्पा	-9.68907
▁मुद्दा	-9.68907
▁निर्माता	-9.68913
▁32	-9.69018
▁पाईन्छ	-9.69044
▁W	-9.69071
▁सम्झौता	-9.69207
▁इस	-9.69208
▁निर्मित	-9.69209
सन्	-9.69216
नामा	-9.69271
उप	-9.69287
▁प्रशासनिक	-9.69288
▁जर्मन	-9.6932
▁न्यु	-9.69513
क्सी	-9.69523
न्थ्यो	-9.69526
▁दान	-9.69612
ठो	-9.69748
▁प्रो	-9.69751
▁रस	-9.69771
ma	-9.69808
▁विशिष्ट	-9.69812
ver	-9.69848
▁राखे	-9.69873
▁वहाँ	-9.69895
▁देशहरू	-9.699
▁K	-9.70013
खो	-9.70093
▁सृष्टि	-9.70114
▁त्याग	-9.70127
मेन्ट	-9.7013
▁ल्याए	-9.70152
▁फुट	-9.70153
▁नहुने	-9.70167
▁विमान	-9.702
▁कोरिया	-9.70235
▁सम्बन्धमा	-9.70258
▁स्टे	-9.70268
id	-9.70337
▁सेती	-9.70391
ौरा	-9.70478
▁सङ्घीय	-9.70524
ist	-9.70547
▁सम्मको	-9.70565
▁दूर	-9.70617
—	-9.7069
▁दोश्रो	-9.70722
▁सैन्य	-9.70723
▁रेखा	-9.70851
▁चीनको	-9.70878
▁सिम	-9.70918
▁1990	-9.71071
▁राज्यमा	-9.71106
▁मौ	-9.7123
▁शुभ	-9.71242
पाद	-9.71307
न्ति	-9.71332
रहेका	-9.7134
दर्श	-9.71357
गन	-9.7138
वासी	-9.71396
▁पाठ	-9.7143
▁बच	-9.7156
28	-9.71563
▁पर्यटक	-9.71635
▁श्रीलङ्का	-9.71643
▁मनुष्य	-9.71645
44	-9.71669
▁जङ्गल	-9.71671
▁बिना	-9.71764
▁भएपनि	-9.71796
▁बार	-9.71803
ti	-9.71847
▁बदल	-9.71863
▁आदेश	-9.71925
▁कलियुग	-9.71951
▁आवाज	-9.71954
▁प्राचिन	-9.71958
▁पेट	-9.71976
▁रोक	-9.72014
▁सकिने	-9.72017
▁काली	-9.72076
▁थियोे	-9.72157
▁खे	-9.72169
▁उसले	-9.72176
▁कर्मचारी	-9.72261
धर्म	-9.72284
ायन	-9.72288
▁पुस्ता	-9.72325
ेय	-9.7243
▁राष्ट्रहरू	-9.72465
▁दुख	-9.72473
इन्	-9.72545
41	-9.72573
▁निर्धारण	-9.72576
▁तामा	-9.72583
▁बुझिन्छ	-9.72618
पद	-9.72639
▁भर्	-9.72692
डिया	-9.72723
हल	-9.72781
▁was	-9.72896
▁पुजा	-9.72904
▁ज्योतिष	-9.72951
▁सोच	-9.7297
▁बनाइ	-9.72983
▁पछिल्लो	-9.72993
सक	-9.73085
58	-9.73144
▁विभाजित	-9.73196
्याल	-9.73299
▁होस्	-9.73327
▁पशु	-9.73356
▁लगाउन	-9.73362
लिङ	-9.73396
▁चक्र	-9.73442
कम	-9.73483
मण्डल	-9.73492
▁सिर्जना	-9.73509
▁पितृ	-9.7351
वर्त	-9.73513
▁शक्तिशाली	-9.73521
कर्म	-9.73554
▁बढि	-9.73576
▁भन्छन्	-9.73629
▁प्रारम्भिक	-9.73643
भरि	-9.73644
कल्प	-9.73685
पुरी	-9.73696
▁कोही	-9.7378
▁मार्	-9.73793
▁परेका	-9.73797
हरूसँग	-9.73842
▁मीटर	-9.73858
31	-9.73864
▁बाली	-9.73895
▁डी	-9.73911
▁प्रतियोगिताको	-9.73919
्च	-9.73926
महा	-9.73967
▁जसका	-9.74049
▁e	-9.74097
F	-9.74134
▁गाउँमा	-9.74134
▁जोखिम	-9.74139
▁सङ्गीत	-9.74141
▁बिक्री	-9.74141
▁आनन्द	-9.74143
▁नारायणी	-9.7416
ाइड	-9.74215
▁वायु	-9.74346
▁टाउको	-9.74463
▁हृदय	-9.74522
▁रेल	-9.74583
▁जीवनी	-9.74878
फो	-9.74922
वाला	-9.75016
▁ली	-9.75022
▁शु	-9.75049
▁नाममा	-9.75116
▁साउन	-9.75131
▁60	-9.75169
▁राजाको	-9.75271
▁तत्व	-9.75289
▁तिल	-9.75294
▁त्यसमा	-9.75433
▁पदमा	-9.75491
▁यहा	-9.75491
▁लिएका	-9.75532
ावली	-9.75535
▁होला	-9.75595
▁प्रतिष्ठान	-9.75628
चौर	-9.75636
हाल	-9.75683
▁किराँत	-9.75731
▁हनुमान	-9.75731
ण्डा	-9.75733
-20	-9.75952
ँड	-9.76028
▁विद्या	-9.76033
▁भविष्य	-9.76053
▁भगवती	-9.76057
▁त्यसबेला	-9.76112
▁उपाय	-9.76122
▁शिखर	-9.76172
त्ता	-9.76189
म्बु	-9.76275
13	-9.76297
ंच	-9.76309
▁व्यापारिक	-9.7631
▁दुर्गा	-9.76315
▁नियमित	-9.7633
▁शाहको	-9.76413
परि	-9.76472
▁प्राणी	-9.76519
35	-9.76554
▁पास	-9.76599
▁गाउँपालिकाको	-9.76655
▁किसिमका	-9.76699
▁कास्की	-9.76702
▁अध्याय	-9.76706
▁स्त्री	-9.76726
▁मिलाएर	-9.76772
▁विधान	-9.76786
▁चन्द्रमा	-9.76823
▁भीम	-9.76824
▁थाल	-9.76892
▁दिल	-9.76918
पटक	-9.7692
साना	-9.77018
▁भन्दछन्	-9.77032
मणि	-9.77073
▁नभए	-9.77091
▁पानीको	-9.77153
▁सीता	-9.77202
▁दिई	-9.77219
▁झर	-9.77328
▁at	-9.77349
र्ता	-9.77364
▁मात्रा	-9.77411
▁are	-9.77425
गान	-9.77588
वारी	-9.77608
▁co	-9.77723
▁पिण्ड	-9.7774
▁ताप	-9.77803
▁ह्या	-9.7781
74	-9.77819
39	-9.77891
रत	-9.77904
▁an	-9.77974
▁भक्त	-9.77985
▁स्वामित्व	-9.78004
▁औसत	-9.78006
▁सम्भव	-9.78017
▁छोटो	-9.7803
▁ग्र	-9.78071
▁बाह्र	-9.78098
मात्र	-9.78119
सम्बन्धी	-9.78169
▁दर्शाउँदछ	-9.78333
▁रामायण	-9.78333
▁भन्दै	-9.78375
▁जोडी	-9.78386
▁मासु	-9.78435
▁भनाइ	-9.78503
▁पद्धतिका	-9.78512
45	-9.78513
▁बङ्गाल	-9.78588
्की	-9.78626
▁प्रश्न	-9.78666
श्र	-9.78675
T	-9.78684
▁तमु	-9.78719
▁क्रिया	-9.78766
्लो	-9.78785
िन्थ्यो	-9.7883
▁ईसाका	-9.7886
▁घु	-9.78884
▁बैशाख	-9.78994
▁वास्तविक	-9.78994
ानु	-9.79
▁महिनाको	-9.7901
सम्मको	-9.79103
▁आर	-9.79141
▁:-	-9.79162
ेकी	-9.79233
▁आधा	-9.79273
▁विविधता	-9.79311
▁यादव	-9.79328
▁पूर्णिमा	-9.79338
▁खुट्टा	-9.79342
▁सहज	-9.79386
▁यम	-9.7941
डाँडा	-9.79467
▁जितेको	-9.79512
▁दृष्टि	-9.79598
▁वर्षहरूको	-9.796
▁पछिदेखि	-9.79601
▁रुस	-9.79613
बेला	-9.79625
tion	-9.7964
▁बिरामी	-9.79663
▁पै	-9.7971
66	-9.79727
▁फोन	-9.79743
▁पक्षमा	-9.79747
▁अधार	-9.79869
▁लेखेका	-9.79895
स्तर	-9.79897
बास	-9.79909
▁बास	-9.79913
▁धर	-9.79961
▁मालिक	-9.79963
▁जूलियन	-9.79994
▁आश्रम	-9.80037
▁दी	-9.80071
▁शरीरमा	-9.80086
हारी	-9.80128
▁घाट	-9.80132
फर	-9.80164
▁बाँ	-9.80195
▁एन्	-9.80221
सकेपछि	-9.80254
▁नारी	-9.80274
ादि	-9.80284
▁उस	-9.80309
र्ब	-9.80324
▁पार्न	-9.80325
▁मसीहको	-9.8033
▁त्यस्तो	-9.80334
▁परीक्षण	-9.80335
▁फौज	-9.80335
▁म्याच	-9.80457
▁गोपाल	-9.80474
▁सम्पर्क	-9.80667
्ज	-9.80687
▁बुढा	-9.80703
पार	-9.80823
▁हुन्थ्यो	-9.8088
55	-9.8092
64	-9.80962
गढी	-9.80998
▁लक्षण	-9.81002
▁स्विफ्ट	-9.81004
▁खेल्न	-9.81088
श्च	-9.81161
▁भोजन	-9.81185
▁शाहले	-9.81186
चुनिएको	-9.81282
▁क्रियाकलाप	-9.81343
▁पञ्चाग	-9.81344
▁रण	-9.81388
▁देशका	-9.81485
▁O	-9.81493
▁गुप्त	-9.81593
▁प्रशासन	-9.81649
▁करीब	-9.81692
▁इस्लाम	-9.81698
▁इलाका	-9.81707
▁हातमा	-9.8174
▁बसे	-9.81787
42	-9.81849
72	-9.81889
्सा	-9.81915
खी	-9.81971
▁स्याङ्जा	-9.82025
▁75	-9.82033
▁कम्पनीको	-9.82077
▁जून	-9.8209
▁लक्षणहरू	-9.82102
▁वर्षहरूलाई	-9.82126
▁चिया	-9.82126
▁प्रवाह	-9.82193
▁दृष्टिले	-9.8223
▁पत्रकार	-9.82244
ौली	-9.82253
▁एकीकरण	-9.82256
▁पल	-9.82331
ोस्	-9.82335
▁सम्भावना	-9.82367
▁समुन्द्र	-9.82367
▁बोट	-9.82419
न्थे	-9.82458
▁धारणा	-9.82638
▁बजे	-9.82672
▁अन्तरका	-9.82678
▁धातु	-9.82723
▁धरान	-9.82766
तार	-9.82787
▁मकै	-9.82794
43	-9.82805
न्तु	-9.8282
▁आर्	-9.82844
ment	-9.83009
▁नभई	-9.83057
जीव	-9.83122
▁सन्देश	-9.83149
▁सङ्	-9.83164
धान	-9.83172
धारा	-9.83184
▁नजीकै	-9.83222
▁वर्	-9.83259
▁गर्नुपर्छ	-9.83266
ोज	-9.83307
▁भन	-9.83404
▁देवकोटा	-9.83408
▁2058	-9.83438
▁सहभागिता	-9.83439
ज्ञान	-9.8345
▁परा	-9.83453
प्रमुख	-9.83472
▁चिकित्सा	-9.83475
▁प्रतीक	-9.83507
▁मनो	-9.83507
▁पत्ता	-9.83518
▁खि	-9.83522
▁साथमा	-9.8357
▁पालन	-9.83612
▁अमेरिकामा	-9.8363
्दैन	-9.83631
्रु	-9.83702
▁हुँ	-9.83717
▁द्वीप	-9.83761
▁भनाई	-9.83808
▁तरिका	-9.83822
▁गरिन्थ्यो	-9.8383
▁सालदेखि	-9.83967
▁अत्यन्तै	-9.84008
ौला	-9.84031
िप	-9.84034
▁रक्त	-9.84059
▁बम	-9.84078
▁पंक्षी	-9.84097
69	-9.84104
▁कमजोर	-9.84104
▁अंक	-9.84111
▁जाती	-9.84117
▁व्यावसायिक	-9.84144
▁प्रतिस्पर्धा	-9.8415
▁अमृत	-9.8419
एक	-9.84204
57	-9.84207
47	-9.84269
▁लागेका	-9.84415
56	-9.84427
▁बसोवास	-9.84447
▁थोरै	-9.84448
▁घरेलु	-9.84448
▁बहिनी	-9.84474
▁कार्यरत	-9.84527
▁शिकार	-9.84548
▁नप	-9.84563
▁बेलायती	-9.84639
el	-9.84715
03	-9.84806
जीवन	-9.84858
▁धनी	-9.8487
ंत	-9.84875
▁व्यक्तित्व	-9.84885
नारायण	-9.84895
पथ	-9.84963
04	-9.85042
▁परिषद्	-9.85049
-1	-9.85052
co	-9.85054
▁काट	-9.85084
ाउदै	-9.85141
▁कैलाली	-9.85151
▁विजयी	-9.85156
▁अधारित	-9.85248
▁अधि	-9.85274
ci	-9.85349
खेल	-9.85389
▁उनीहरूले	-9.85395
59	-9.8542
▁एक्स	-9.85451
▁छेउ	-9.85454
▁आयुर्वेद	-9.85503
▁राप्ती	-9.85503
▁सर्वोच्च	-9.85503
▁प्रशस्त	-9.85506
▁खेलको	-9.85512
▁यिनै	-9.85537
▁कसैले	-9.85548
▁मानिसहरु	-9.85558
▁रूस	-9.85581
▁गाउ	-9.85587
यू	-9.85615
▁जित्न	-9.85722
▁सम्मानित	-9.85749
▁हाे	-9.85808
▁जन्मेका	-9.85849
▁सर्वप्रथम	-9.85858
▁स्थायी	-9.85858
▁दोलखा	-9.85858
ng	-9.8586
▁लमजुङ	-9.85863
▁परिभाषा	-9.85874
▁त्यसैगरी	-9.85874
आई	-9.859
डर	-9.85901
▁मंगल	-9.8598
छन	-9.85989
▁थो	-9.8599
वर्ष	-9.86033
▁पढ्न	-9.86039
▁बुबा	-9.8605
▁कुण्ड	-9.86125
▁पाएको	-9.86153
▁मोबाइल	-9.86214
▁असोज	-9.86232
▁2070	-9.86233
ve	-9.86257
शमशेर	-9.86284
“	-9.86286
साथ	-9.86335
▁दुरी	-9.86421
दास	-9.86438
ानन्द	-9.86449
▁सरस्वती	-9.86571
▁तनहुँ	-9.86571
▁कप्तान	-9.86572
▁क्रमशः	-9.8659
▁राखी	-9.86611
ay	-9.86638
▁गर्मी	-9.86643
ाइयो	-9.86674
▁पार्क	-9.86677
▁आउन	-9.8669
▁बाहुन	-9.86692
▁गएका	-9.86735
▁रूख	-9.8674
टेल	-9.86816
ाहा	-9.86851
▁दूरसञ्चार	-9.86929
▁सामुदायिक	-9.86929
▁अगस्ट	-9.86931
▁शहरमा	-9.86959
▁माथिल्लो	-9.86963
▁आफै	-9.86996
ष्टि	-9.87005
▁50%	-9.87017
22	-9.87038
▁बसेका	-9.87075
▁औपचारिक	-9.87289
▁छुट्टै	-9.87289
▁सम्प्रदाय	-9.87289
▁पाँडे	-9.8729
होस्	-9.87303
तै	-9.8735
स्था	-9.87469
ुत	-9.87484
▁टेक	-9.87521
53	-9.87556
कुमारी	-9.87591
▁शताब्दीमा	-9.87617
▁मकवानपुर	-9.8765
▁किनभने	-9.87661
▁2072	-9.87682
पुत्र	-9.87688
▁उपकरण	-9.877
▁रू	-9.87764
बाहेक	-9.87764
र्ध	-9.87852
▁मित्र	-9.87902
▁ऊर्जा	-9.88013
▁अभाव	-9.88034
▁भण्डारी	-9.88055
▁चिसो	-9.88139
▁अञ्चलमा	-9.88238
▁80	-9.88272
▁जातीय	-9.88327
he	-9.88338
▁यसबाट	-9.88345
▁कान	-9.88362
▁लोकतान्त्रिक	-9.88376
▁विश्वयुद्ध	-9.88376
▁शारीरिक	-9.88376
▁पहल	-9.88376
▁भीमसेन	-9.88381
▁हिसाबले	-9.88412
▁जन्मलाई	-9.88466
▁दह	-9.88526
▁एयर	-9.88568
▁साहित्यमा	-9.88694
▁36	-9.88736
▁प्राविधिक	-9.88741
▁काठमाण्डौ	-9.88741
▁पाण्डव	-9.88742
▁परीक्षा	-9.88751
▁2003	-9.88787
▁3.	-9.88894
्दी	-9.89033
बाटै	-9.89044
याँ	-9.8905
उँ	-9.89079
▁गोप	-9.89091
▁समेट	-9.89102
▁अस्ट्रेलिया	-9.89107
▁जनयुद्ध	-9.89107
▁दुध	-9.89126
िन्छन्	-9.89129
▁श्रीमती	-9.8915
▁किरण	-9.89156
▁वाणिज्य	-9.89182
▁तपाई	-9.89222
▁सेनाको	-9.89327
▁प्राण	-9.89351
▁डर	-9.89371
▁हतियार	-9.89475
▁शेर्पा	-9.89475
▁सुरक्षित	-9.89475
▁पार्वती	-9.89475
कृति	-9.89491
▁समयसम्म	-9.89522
प्ले	-9.8953
▁स्वर्ण	-9.89531
ाउँ	-9.89581
▁जोग	-9.89625
▁पति	-9.89695
.1	-9.89809
▁आन्तरिक	-9.89844
▁विश्लेषण	-9.89844
▁रुकुम	-9.89844
▁लक्ष्य	-9.89844
लय	-9.89906
▁चौधरी	-9.89907
▁स्वामी	-9.89912
▁कार्यक्रमहरू	-9.89925
▁भनिने	-9.89987
मल	-9.90037
01	-9.90193
▁हुनुहुन्थ्यो	-9.90214
▁यूरोप	-9.90215
▁महाकाली	-9.90222
वती	-9.90264
▁निवास	-9.90296
्कि	-9.90338
▁आयु	-9.90367
op	-9.90385
08	-9.90433
▁कौ	-9.9044
▁सरल	-9.90467
▁द्वितीय	-9.90587
▁कमी	-9.90683
▁अलि	-9.90751
▁हित	-9.90911
▁एन्ड	-9.90939
▁मद्दत	-9.9096
्जा	-9.90962
▁कार्बन	-9.90962
▁दियो	-9.90994
▁बढ्दै	-9.91067
▁चैत्र	-9.9109
रियल	-9.91103
▁भएकी	-9.91114
▁शंकर	-9.91165
पोर्टल	-9.91258
▁बाँड	-9.91275
न्ना	-9.91304
▁as	-9.91313
▁with	-9.91334
▁एकादशी	-9.91334
▁चिनिने	-9.91407
जल	-9.91429
▁टोल	-9.91487
▁भैरव	-9.91572
▁व्यास	-9.91641
झा	-9.91665
ांग	-9.917
▁शिक्षक	-9.91738
▁रिस	-9.91767
थु	-9.91905
हरी	-9.91932
▁देखे	-9.91994
मेन	-9.92
▁आकर्षण	-9.92087
▁मुस्लिम	-9.92087
▁विश्वकर्मा	-9.92087
▁शुरुवात	-9.92091
▁वित्तीय	-9.92123
▁मिति	-9.92123
द्धि	-9.9215
▁चार्ट	-9.9215
▁मानिने	-9.92195
▁श्रेणी	-9.9224
▁देवीको	-9.92264
ाकार	-9.92273
▁वर्षलाई	-9.92298
इट	-9.92305
▁शहरको	-9.92322
▁मुलुकमा	-9.92342
09	-9.92389
▁लिई	-9.92403
▁धार	-9.92424
▁d	-9.92439
▁संकेत	-9.92468
▁वसन्त	-9.92474
▁जाँदा	-9.92521
▁आदर्श	-9.92596
▁पुग्ने	-9.92636
ल्यान्ड	-9.92638
▁45	-9.92677
▁धारण	-9.92679
ाधिकार	-9.92682
शक्ति	-9.92684
▁ड्र	-9.9272
34	-9.92809
चोक	-9.92834
▁बन्ने	-9.92843
▁मुसलमान	-9.92847
▁मातृ	-9.9285
▁लिम्बु	-9.92866
▁ऋ	-9.92913
99	-9.92955
▁झरना	-9.92997
मिल	-9.93017
▁धर्मका	-9.93037
▁उसलाई	-9.93171
▁हिंसा	-9.93242
26	-9.93245
▁कार्	-9.93262
▁परिसर	-9.93273
▁राजकुमार	-9.93303
केट	-9.9335
▁उनकी	-9.93397
np	-9.93489
▁मासिक	-9.93541
▁रहेर	-9.93543
▁लगाएर	-9.93547
▁परिणाम	-9.93609
▁सक्दैन	-9.93628
▁जिते	-9.93638
▁2073	-9.93656
जय	-9.93664
nd	-9.93673
▁आरक्ष	-9.93673
▁ये	-9.93708
▁बुझ्न	-9.93715
▁दर्ता	-9.93739
▁कल्याण	-9.93739
▁st	-9.93801
▁भर्ना	-9.93802
▁ब्य	-9.93859
▁सूत्र	-9.93873
▁ज्या	-9.9391
▁माने	-9.93961
▁सौन्दर्य	-9.93995
▁छनौट	-9.93996
▁मठ	-9.94023
▁टापु	-9.94062
▁रही	-9.94068
▁पैसा	-9.94077
भव	-9.94195
▁गज	-9.94226
▁.	-9.94355
▁लेख्न	-9.94366
া	-9.94381
▁सङ्खुवासभा	-9.94382
▁लगातार	-9.94386
▁वृ	-9.94391
▁फिर्ता	-9.94401
▁सौ	-9.94459
▁अत	-9.94479
भू	-9.94554
वर्ग	-9.94658
लिक	-9.94766
▁महानगरपालिका	-9.94775
▁रंगशाला	-9.94777
▁अनुमति	-9.94786
ध्	-9.94792
▁जनजाति	-9.94793
24	-9.94799
▁किनारमा	-9.94802
▁कन्या	-9.94808
▁लिइन्छ	-9.94829
pa	-9.94899
▁स्थानिय	-9.94995
िटी	-9.95021
▁बङ्गालको	-9.95066
▁सेल	-9.95147
▁चरित्र	-9.95159
▁संकलन	-9.9516
▁जनआन्दोलन	-9.95162
▁विराटनगर	-9.95166
▁आरोप	-9.95181
▁थि	-9.952
गरी	-9.95204
यी	-9.95238
▁ज्योति	-9.95254
▁जबकि	-9.9531
▁सदा	-9.95318
▁उद्	-9.9535
05	-9.95384
▁नील	-9.95411
▁फ्र	-9.95412
पट	-9.95423
▁आमाको	-9.95442
▁ओलम्पिक	-9.95549
▁समग्र	-9.95564
▁सामान	-9.95586
▁थारू	-9.95597
▁स्वभाव	-9.956
▁समेटेर	-9.9565
▁क्षति	-9.95668
I	-9.95689
▁फर्के	-9.95755
▁गर्नुपर्ने	-9.95762
▁वर्षसम्म	-9.95787
▁33	-9.95799
▁तिम्रो	-9.95942
▁जनरल	-9.95952
ून	-9.95982
▁2002	-9.95986
▁रुद्र	-9.9604
M	-9.96078
ers	-9.96082
िक्स	-9.96091
▁व्या	-9.96095
घु	-9.96134
33	-9.96162
स्वा	-9.96196
▁चिर	-9.96229
घात	-9.96266
लुङ	-9.96281
▁उपत्यकामा	-9.96285
▁बसेर	-9.96326
▁दार्जिलिङ	-9.96335
▁पुग्छ	-9.96357
▁मिलियन	-9.96425
▁थारु	-9.96427
वंश	-9.96492
▁जसो	-9.96545
▁देशहरूमा	-9.96677
▁उद	-9.96689
▁उपमहानगरपालिका	-9.9673
▁औद्योगिक	-9.9673
▁कीर्ति	-9.96745
▁जमिन	-9.96795
▁व्यक्तिगत	-9.96821
▁कुट	-9.96938
000	-9.96958
▁राखेको	-9.96995
▁माइ	-9.97014
वीर	-9.97046
▁देखिन्छन्	-9.97084
▁दिइ	-9.97096
▁आसपास	-9.97127
▁वरिपरि	-9.97127
▁ब्राजिल	-9.97128
▁शत्रु	-9.97132
▁विष्ट	-9.97201
▁गरिए	-9.97235
▁में	-9.97247
भेद	-9.97355
▁तयारी	-9.97394
88	-9.97471
▁सकेन	-9.97503
▁समर्थन	-9.97526
ान्तर	-9.97586
▁लेखा	-9.97698
न्यास	-9.97803
र्ल	-9.97826
▁कृतिलाई	-9.97845
्याङ	-9.97906
▁अक्सिजन	-9.97925
▁प्रिमियर	-9.97925
▁पुगेका	-9.97939
▁संग्रहालय	-9.9794
▁तापनि	-9.98048
os	-9.98119
थर	-9.98168
▁भोट	-9.98216
▁अड	-9.98257
▁रहेछ	-9.98261
ेशन	-9.98289
▁सुर्खेत	-9.98327
▁बैतडी	-9.98327
▁मुनि	-9.98342
▁एकता	-9.98342
▁चेतना	-9.98453
▁पटना	-9.98464
98	-9.98479
▁समाजवादी	-9.98637
36	-9.98639
0%	-9.98712
स्टर	-9.98724
॥	-9.9873
▁कथानक	-9.98744
▁शिक्षण	-9.98747
▁हेर्ने	-9.98778
▁कम्पनीले	-9.98814
▁दाजु	-9.98823
▁आदिवासी	-9.98827
बजार	-9.98837
फाइ	-9.98901
भूमि	-9.98903
▁)	-9.98916
▁बोली	-9.98975
दर्शन	-9.99061
▁बाँस	-9.99162
pe	-9.99179
▁कठिन	-9.99272
▁संविधानसभा	-9.99283
▁=	-9.9937
वै	-9.99512
▁पशुपति	-9.99531
▁नोबेल	-9.99534
▁वास्तवमा	-9.99541
▁that	-9.99542
▁ठाउ	-9.99556
▁खालको	-9.99577
▁केटी	-9.99614
▁पहिलोपटक	-9.99638
▁चिन्ह	-9.99687
▁ऋण	-9.99733
म्स	-9.99759
▁किमी	-9.9976
▁एमाले	-9.9979
▁बढ्न	-9.99805
ाधी	-9.99841
▁गिरी	-9.99851
▁यन्त्र	-9.99883
▁ॐ	-10
▁1999	-10.0003
ट्स	-10.001
▁भ्या	-10.001
▁सचिव	-10.0016
▁शान्त	-10.0033
▁भगवान्	-10.0035
▁सीमित	-10.0036
▁युरोपेली	-10.0037
▁भइसकेको	-10.0038
▁भाई	-10.004
▁अन्तरगत	-10.0041
नायक	-10.0045
सके	-10.0047
▁बस्नेत	-10.0047
कर्मी	-10.0058
.2	-10.0063
▁भग	-10.0065
▁स्थानहरूमा	-10.0066
▁छैनन्	-10.0072
▁तर्क	-10.0075
सेवा	-10.0076
▁कुकुर	-10.0078
▁अपराध	-10.0078
▁हिँड	-10.0081
▁नभएर	-10.0083
▁स्टार	-10.0087
▁सभासद	-10.0102
▁समस्त	-10.0103
▁जोडेर	-10.0108
▁रामेछाप	-10.0118
_	-10.0119
▁मानसिक	-10.0121
▁जोन	-10.0124
रहे	-10.0126
▁मृत	-10.0126
▁युद्धको	-10.0129
▁मुना	-10.0138
भएका	-10.0138
▁चुन	-10.014
▁g	-10.014
▁सिल	-10.0141
▁परिणत	-10.0161
▁लिङ्ग	-10.0161
▁बैंकको	-10.0164
क्ल	-10.0165
िनु	-10.0175
▁कृतिहरू	-10.0176
▁विकिपिडिया	-10.0181
ry	-10.0186
▁अंश	-10.0196
ुहुन्छ	-10.0199
▁घिमिरे	-10.0202
▁स्मारक	-10.0202
▁भूकम्प	-10.0202
▁प्रथा	-10.0204
▁ne	-10.0207
▁हिउँ	-10.0213
एफ	-10.0213
▁परिचय	-10.0215
वर्ती	-10.022
▁पद्धति	-10.0221
▁किनारा	-10.0223
हरूमध्ये	-10.0226
▁भित्री	-10.0227
▁खोटाङ	-10.0229
ate	-10.0236
up	-10.0238
▁हस्ताक्षर	-10.0244
▁उपाध्याय	-10.0245
▁2063	-10.0248
▁युवराज	-10.0251
मिक	-10.0258
▁छन्द	-10.0264
▁सम्वत	-10.0265
▁मधु	-10.0272
मती	-10.0274
▁अंत	-10.0275
▁ढोका	-10.0286
त्रा	-10.0286
▁दिइन्छ	-10.0287
▁अवि	-10.029
▁सां	-10.0293
▁परिवारका	-10.0297
▁बाध्य	-10.0299
▁स्मृति	-10.0305
ांत	-10.0307
फ्	-10.0314
हीन	-10.0315
ंट	-10.0318
▁युनेस्को	-10.0326
▁परमाणु	-10.0328
▁संख्यामा	-10.0331
07	-10.0333
▁काग	-10.0335
▁जसबाट	-10.0338
▁बोर्ड	-10.0339
छु	-10.0347
▁नजिकै	-10.0349
ँगा	-10.0353
▁जरा	-10.0355
:-	-10.0355
▁सत	-10.036
im	-10.036
णि	-10.0365
सेन	-10.0367
▁चाँदी	-10.037
▁उपाध्यक्ष	-10.0371
▁पुष्टि	-10.0372
▁बोकेको	-10.0374
▁उदयपुर	-10.0376
79	-10.0379
▁दुख्ने	-10.0381
▁ढुङ्गा	-10.0388
48	-10.0391
▁पाइएको	-10.0394
51	-10.0401
▁गर्नुभयो	-10.0407
बै	-10.0411
▁कलेण्डरमा	-10.0413
त्ती	-10.0414
▁समुदायमा	-10.0418
▁तिहार	-10.042
▁दीप	-10.0424
सक्नु	-10.0429
62	-10.0431
पञ्च	-10.0434
▁नाप	-10.0435
▁यहि	-10.0438
▁छाया	-10.0439
ग्रे	-10.0446
▁तौल	-10.0451
▁सफ्टवेयर	-10.0455
▁समानुपातिक	-10.0455
▁भानुभक्त	-10.0455
▁समाधान	-10.0456
▁ब्यक्ति	-10.0456
▁लाग्यो	-10.046
▁त्य	-10.0461
▁स्तन	-10.0461
▁1989	-10.0461
▁निज	-10.0462
86	-10.0465
▁सोम	-10.0466
▁उचित	-10.0477
केश	-10.0478
▁हुनुभयो	-10.0478
▁कहिल्यै	-10.0498
▁छिमेकी	-10.0498
▁गै	-10.0503
स्तो	-10.0504
▁4.	-10.0505
्टो	-10.0511
▁नसके	-10.052
4%	-10.052
▁मानिन्छन्	-10.0521
.6	-10.0522
वंशी	-10.0523
▁आन्दोलनमा	-10.0527
32	-10.0528
▁पन्त	-10.0531
भारत	-10.0536
▁संगै	-10.0537
▁निकट	-10.0543
▁लेख्ने	-10.0545
ुपर्ने	-10.0545
▁खुल	-10.0546
▁सिन्धुली	-10.0548
▁उपत्यकाको	-10.055
तन्त्र	-10.0554
ण्ट	-10.0557
ca	-10.0557
▁क्व	-10.0563
ारा	-10.0566
▁जानु	-10.0568
▁लोप	-10.0579
▁बर्मा	-10.0585
▁प्रजातान्त्रिक	-10.0585
▁महासागर	-10.0585
▁तथ्याङ्क	-10.0586
▁जसमध्ये	-10.0589
धाम	-10.0592
▁पाकिस्तानको	-10.0594
▁सप्तरी	-10.0596
▁J	-10.06
▁खेत	-10.0605
▁रेड	-10.0612
▁भजन	-10.062
▁बासिन्दा	-10.0628
▁सहरमा	-10.0629
▁किशोर	-10.0629
▁सपना	-10.0629
▁प्राप्ति	-10.063
प्ल	-10.063
▁h	-10.0633
▁प्रजनन	-10.0633
▁लुक	-10.0635
▁महादेश	-10.064
▁दलित	-10.064
▁निस्क	-10.0641
ru	-10.0645
▁con	-10.0646
▁माई	-10.0653
भूत	-10.0654
▁बोल्ने	-10.0659
▁उदय	-10.0661
▁कोट	-10.0669
▁प्रजा	-10.0671
▁जन्मिएका	-10.0686
▁और	-10.0687
गञ्ज	-10.0688
लक्ष्मी	-10.0695
▁राग	-10.07
▁उपस्थिति	-10.0701
▁तरकारी	-10.0706
▁mo	-10.0706
▁अवसरमा	-10.0711
▁भण्डार	-10.0711
अर्	-10.0713
मिन	-10.0714
▁अङ्क	-10.0715
मोर	-10.0715
▁कान्तिपुर	-10.0716
▁सशस्त्र	-10.0716
▁पुस	-10.0718
▁माझ	-10.072
▁कल्पना	-10.0723
▁भरि	-10.0723
▁स्थलहरू	-10.0726
ेश्वरी	-10.0731
ऊँ	-10.0737
प्प	-10.0739
P	-10.074
▁इन्जिनियरिङ	-10.0741
▁पर्दा	-10.0742
om	-10.0742
्टी	-10.0742
▁इं	-10.0743
द्धारा	-10.0744
▁त्यहा	-10.0753
▁देखिएको	-10.0753
▁कम्युनिस्ट	-10.076
▁1997	-10.0767
▁1998	-10.0768
िदै	-10.077
▁प्रभु	-10.0779
▁सँगै	-10.0779
▁पृथ्वीको	-10.078
▁ल्याउन	-10.0789
्टन	-10.0796
▁इत्यादि	-10.0804
▁महर्षि	-10.0804
▁साप्ताहिक	-10.0804
▁अवलोकन	-10.0804
▁चट्टान	-10.0804
▁राजवंश	-10.0807
फ्ट	-10.081
▁जाग	-10.0812
▁शीर्ष	-10.0812
▁दुईवटा	-10.0815
दारी	-10.0815
▁गणित	-10.0818
भक्त	-10.0838
▁मध्यम	-10.0841
61	-10.0843
▁भुटान	-10.0849
.3	-10.0849
▁औँ	-10.0849
▁अन्नपूर्ण	-10.0851
▁2046	-10.0854
च्छे	-10.0857
▁भाद्र	-10.0859
▁प्राथमिक	-10.0863
स्टि	-10.0866
O	-10.0873
ष्टा	-10.0873
▁बारे	-10.0876
▁उचाई	-10.088
चक	-10.0881
▁लियो	-10.0888
▁अहिलेसम्म	-10.0891
ँदैन	-10.0893
▁सम्पादक	-10.0893
▁टोक	-10.0893
▁सिजन	-10.0899
▁भरतपुर	-10.0899
▁सदस्यता	-10.0899
37	-10.09
▁फ्या	-10.0902
▁नया	-10.0905
▁अष्ट	-10.0907
▁समुदायको	-10.0908
सकेका	-10.0908
▁पुनर्	-10.0909
▁खोजी	-10.091
▁कानुनी	-10.091
▁पठाए	-10.0912
▁पौ	-10.0913
▁बलियो	-10.0917
▁परम	-10.0921
▁90	-10.0923
▁विरोधी	-10.0926
वश	-10.093
▁किलोमीटर	-10.0938
▁सम्राट	-10.0938
▁प्रगति	-10.0938
▁सोध	-10.0939
▁जान्छन्	-10.094
▁सफा	-10.0941
▁स्थ	-10.0942
िस्ट	-10.0945
कालिन	-10.0945
75	-10.0952
▁मेरा	-10.0954
थ्यो	-10.0957
▁आफूले	-10.096
▁काठमाडौ	-10.0968
▁हरियो	-10.0969
▁उत्त	-10.0971
▁कार्यकाल	-10.0972
▁हर्	-10.0975
▁प्रान्तको	-10.0977
▁एम्ब्रोज	-10.0983
▁42	-10.0984
▁खाद्य	-10.0987
▁रुचि	-10.0988
▁शरीरको	-10.0997
▁बारा	-10.0998
▁खाडी	-10.1005
▁छात्र	-10.1008
▁मानिसहरूको	-10.1014
▁झार	-10.1017
▁दर्शक	-10.1019
▁कोठा	-10.102
▁कदम	-10.1025
▁प्रतिभा	-10.1025
▁हाम्रा	-10.1028
▁पछाडि	-10.1029
▁परिस्थिति	-10.103
सूत्र	-10.103
मुखी	-10.1046
▁देखाए	-10.1047
ाउछ	-10.1051
▁हिड	-10.1055
साल	-10.1064
▁मरे	-10.1064
सिक	-10.1064
ाईएको	-10.107
ाइएका	-10.1072
▁सल्यान	-10.1074
▁बहुमुखी	-10.1075
▁निर्वाह	-10.1076
▁राजतन्त्र	-10.1077
▁प्रजातिका	-10.1079
▁संकट	-10.1085
▁बडा	-10.1088
▁चलाए	-10.1097
▁बिर	-10.1098
ant	-10.1103
▁किल्ला	-10.1107
ns	-10.1107
▁तुलनामा	-10.1109
▁वर्षीय	-10.1117
▁जातिका	-10.1119
ে	-10.1119
▁निमित्त	-10.1119
▁अन्ध	-10.1123
sh	-10.1124
सिस	-10.1132
▁जेठा	-10.1137
श्वर	-10.114
्याम	-10.1145
राई	-10.1163
▁रेग्मी	-10.1165
▁प्रकट	-10.1166
▁ज्यादै	-10.1167
76	-10.1167
▁2048	-10.1169
्छु	-10.1177
94	-10.118
▁रहेकोे	-10.1184
▁समितिहरूलाई	-10.1191
H	-10.1193
▁धो	-10.1199
▁भेग	-10.1208
96	-10.1209
▁सजिलै	-10.1211
▁जंगबहादुर	-10.1211
▁पोखरेल	-10.1211
▁छनोट	-10.122
▁देखिए	-10.123
दिने	-10.123
ाधि	-10.123
▁कार्यकर्ता	-10.1231
▁सम्बन्धि	-10.1233
D	-10.1239
▁शीर्षक	-10.1249
▁गाविसहरू	-10.1256
▁अवधारणा	-10.1258
▁समालोचना	-10.1258
▁ओगटेको	-10.1259
▁आयोजित	-10.1259
▁खाए	-10.1261
▁2064	-10.1262
्थ्यो	-10.1266
▁संसारको	-10.1267
▁पार्टीका	-10.127
83	-10.1274
▁आउनु	-10.1274
्याक	-10.1276
▁याे	-10.1277
▁हैन	-10.128
▁विश्वभर	-10.1284
▁देवताको	-10.1292
de	-10.1298
विन	-10.1298
▁कश्मीर	-10.1304
▁गम्भीर	-10.1304
▁गतिविधि	-10.1304
निर्	-10.131
बन्दी	-10.1311
वु	-10.1317
पोर्ट	-10.1325
▁कुराहरू	-10.1327
N	-10.1333
▁गोली	-10.1335
शासन	-10.1342
यता	-10.1344
▁आकारको	-10.1346
विज्ञान	-10.1346
▁कडा	-10.1347
▁बाल्यकाल	-10.1351
▁खासगरी	-10.1352
▁चिनियाँ	-10.1352
▁क्रान्तिकारी	-10.1354
▁अर्थतन्त्र	-10.1354
▁भुक्तानी	-10.136
▁रोज	-10.1361
ww	-10.1361
▁धा	-10.1363
▁सुपर	-10.1369
्चा	-10.1374
▁कहाँ	-10.1375
मति	-10.1378
▁कर्ण	-10.1379
▁जीत	-10.1383
िकरण	-10.1387
कालदेखि	-10.1389
▁काङ्ग्रेस	-10.1398
▁भदौ	-10.1398
▁त्यतिबेला	-10.1399
▁शिल्प	-10.1399
▁उद्देश्यले	-10.1403
60	-10.1403
▁अंग्रेज	-10.1404
▁दिशा	-10.1408
▁स्वाद	-10.1412
▁दास	-10.1415
▁कार्यकारी	-10.1416
▁सतहबाट	-10.1417
ne	-10.1419
▁l	-10.1422
▁ज्यान	-10.1423
▁लौ	-10.1433
▁मिश्र	-10.1436
स्टा	-10.1446
▁भनिन्थ्यो	-10.1447
▁राहु	-10.1447
▁पुस्तकालय	-10.1449
▁पूज	-10.145
▁त्यहि	-10.145
मूलक	-10.145
▁by	-10.1452
▁लहर	-10.1453
भाषा	-10.1465
-19	-10.1468
▁U	-10.147
95	-10.1476
▁सल्लाह	-10.148
▁ग्रन्थहरू	-10.1489
▁फिट	-10.1492
▁पुरोहित	-10.1492
▁घाँस	-10.1493
▁रसायन	-10.1495
▁R	-10.1503
▁गरिरहेको	-10.1506
▁भरत	-10.1507
▁हुनुपर्छ	-10.1509
ज्ञा	-10.1513
▁रोम	-10.1514
▁लिच्छवि	-10.1526
छे	-10.1527
▁द्वार	-10.1529
▁तेज	-10.1533
▁सहभागीता	-10.1536
▁महाधिवेशन	-10.154
▁मुम्बई	-10.154
▁गायिका	-10.154
▁धेरैजसो	-10.154
▁हवाई	-10.154
▁व्याकरण	-10.1541
▁किलो	-10.1543
▁बोक	-10.1546
▁टीका	-10.155
्रिक	-10.1556
ांक	-10.1556
68	-10.156
मह	-10.1561
द्वार	-10.1561
▁खेलेका	-10.1572
▁दिनसम्म	-10.158
▁निर्भर	-10.1592
▁ठुला	-10.1597
▁लडाई	-10.1599
▁हटाउन	-10.1602
▁सेवन	-10.1603
▁ब्रा	-10.1611
▁तरिकाले	-10.1612
▁केदार	-10.1612
▁फेरी	-10.162
▁भन्नु	-10.162
▁खै	-10.1626
▁हाइ	-10.163
▁बरालले	-10.1633
91	-10.1634
▁ठकुरी	-10.1636
▁स्तम्भ	-10.1636
qu	-10.1636
दत्त	-10.1637
▁गुठी	-10.1643
▁तप	-10.1643
▁कुश	-10.1644
▁त्यस्ता	-10.1649
▁प्रण	-10.1652
▁उल्लेखित	-10.1655
▁भय	-10.1659
▁प्रमाणित	-10.166
रोग	-10.1663
पूर्वक	-10.1665
जस्तो	-10.1676
मुनि	-10.168
▁सन्त	-10.1684
▁घाँटी	-10.1684
▁अन्तरिक्ष	-10.1684
▁अन्तराष्ट्रिय	-10.1685
▁अंग्रेजी	-10.1686
▁लाग्दछ	-10.1688
29	-10.1688
▁पार्टीले	-10.1689
खि	-10.1691
▁राजेन्द्र	-10.1695
97	-10.1697
आर	-10.1699
▁झन्	-10.1699
82	-10.1704
िएपछि	-10.1705
▁नगद	-10.1711
▁दक्ष	-10.1722
▁ल्या	-10.1723
▁लगाई	-10.1723
▁अत्यधिक	-10.1733
▁सञ्चालित	-10.1733
▁पर्खाल	-10.1733
▁वेबसाइट	-10.1733
▁डाय	-10.1733
▁क्रि	-10.1734
▁सजिलो	-10.1734
कण्ठ	-10.1735
▁स्थिर	-10.1735
est	-10.1739
▁सभापति	-10.174
निस	-10.176
▁अट	-10.1761
▁अङ्ग्रेज	-10.1764
आफ्नो	-10.1766
▁पढे	-10.177
▁मजदुर	-10.1781
▁बहुमत	-10.1782
थान	-10.1782
▁1991	-10.1789
▁राखेका	-10.1791
▁जाडो	-10.1793
▁शत	-10.1795
र्ना	-10.1798
▁किराती	-10.1804
▁मन्त्रालयले	-10.1811
▁जीवित	-10.1815
B	-10.1815
L	-10.1815
▁लागु	-10.1816
याल	-10.1817
औँ	-10.1827
▁तपस्या	-10.183
▁गहिरो	-10.1831
▁निर्देश	-10.1831
▁मृग	-10.1831
▁मनाङ	-10.1831
▁चलेको	-10.1832
▁दशैं	-10.1833
▁सदस्यहरू	-10.1835
▁पालामा	-10.1836
ut	-10.1837
▁1994	-10.1838
▁दिव्य	-10.1838
▁घोडा	-10.1839
5%	-10.1847
▁मानिसहरूले	-10.1847
्सन	-10.185
उद	-10.1852
िणी	-10.1853
27	-10.1858
▁उपस्थित	-10.1859
लिंग	-10.1873
▁अन्तर्	-10.1878
▁अनिवार्य	-10.188
▁नेटवर्क	-10.188
▁द्रव्य	-10.188
▁छाती	-10.1883
इरहे	-10.1886
▁साँझ	-10.1886
▁सप्त	-10.1891
02	-10.1892
यात्रा	-10.1896
पाती	-10.1902
▁भाले	-10.1903
▁शताब्दीको	-10.1908
वाङ	-10.1908
ल्प	-10.1916
▁देह	-10.1924
▁योगी	-10.1924
▁यथार्थ	-10.1929
▁कर्तव्य	-10.1929
▁लम्बाई	-10.1929
▁पुण्य	-10.193
▁शिशु	-10.1932
▁ब्यापार	-10.1933
दुर	-10.1933
▁2074	-10.1934
निय	-10.1942
▁थालनी	-10.1945
क्टर	-10.195
▁मार्न	-10.1953
▁सार्क	-10.1954
+	-10.1964
▁ठीक	-10.1966
ंदा	-10.1966
▁व्यक्तिले	-10.1968
▁श्रम	-10.1968
▁शब्दहरू	-10.197
▁रोल्पा	-10.1979
▁भुमिका	-10.1979
▁जटिल	-10.1979
▁मामिला	-10.198
▁मध्यपश्चिमाञ्चल	-10.1982
▁चरणमा	-10.1982
▁पश्चात्	-10.1984
छाड	-10.1986
man	-10.1992
93	-10.1994
▁बाबा	-10.1997
na	-10.1999
▁वंशज	-10.2002
बाह	-10.2009
▁केन्द्रित	-10.2015
▁पुरै	-10.2017
▁बाग	-10.2018
ot	-10.2018
▁मारिए	-10.2018
प्स	-10.202
▁सक्दछ	-10.2023
▁रौतहट	-10.2029
▁बेच	-10.2029
▁छिटो	-10.203
▁घाम	-10.203
▁दूरीमा	-10.2031
▁लिनु	-10.2032
▁च्यानल	-10.2033
▁41	-10.2033
▁ग्यास	-10.2037
▁विकि	-10.204
▁शासकीय	-10.2042
वृत्ति	-10.2046
▁सुत	-10.2053
▁गीता	-10.2057
▁स्ट्र	-10.2058
वेल	-10.2058
▁सन्दर्भमा	-10.2059
▁मोक्ष	-10.2063
उत्तर	-10.2066
▁दिप	-10.2075
िष्ट	-10.2075
▁200	-10.2078
World	-10.2079
▁प्रशिक्षक	-10.2079
▁सञ्जाल	-10.2079
▁हाइड्रोजन	-10.208
▁धुरीमा	-10.208
▁मुगल	-10.2087
▁वर्गीकरण	-10.2088
टिङ	-10.2088
▁हामीले	-10.2089
स्वी	-10.209
87	-10.2091
▁अन्	-10.2092
विद्	-10.21
▁चोक	-10.2102
▁बुवा	-10.2103
िदिए	-10.2106
खर्क	-10.211
▁उच्चारण	-10.213
▁महत्त्व	-10.213
map	-10.2133
▁इस्ट	-10.2141
▁जनताले	-10.2154
कृष्ण	-10.2158
▁खाँ	-10.2162
mp	-10.2164
▁सौर	-10.2172
▁काण्ड	-10.2173
ष्य	-10.2178
▁संवैधानिक	-10.218
▁भातृ	-10.2181
▁स्नातकोत्तर	-10.2181
▁महासचिव	-10.2182
▁51%	-10.2182
▁एफएम	-10.2182
▁देवताहरू	-10.2183
▁उपयोगी	-10.2194
▁it	-10.2197
▁ढुंगा	-10.2198
▁प्रतियोगिताहरू	-10.2199
▁शीत	-10.2211
▁पार्ने	-10.222
धारी	-10.2223
▁मेरी	-10.2224
▁आकर्षित	-10.2232
▁अध्यापन	-10.2232
▁पौडेल	-10.2232
▁हेक्टर	-10.2234
▁49%	-10.2235
▁अशोक	-10.2235
ाइज	-10.2238
▁गरिदिए	-10.2238
▁समुद्री	-10.2239
▁सामेल	-10.2245
्याउने	-10.2249
सैन	-10.2249
▁चाहे	-10.226
89	-10.2268
▁वार्ता	-10.2268
दह	-10.2268
▁कुमारी	-10.2269
▁क्षेत्रहरूमा	-10.2274
▁नगरी	-10.228
▁विस्तृत	-10.2283
▁एकिकरण	-10.2283
▁सही	-10.2283
▁वंशावली	-10.2285
गाड	-10.2288
स्ती	-10.229
▁गित	-10.229
▁मनाइने	-10.2292
▁एण्ड	-10.2292
औ	-10.2295
▁उचाईमा	-10.2298
▁विकिपिडियाका	-10.2308
▁ही	-10.2308
du	-10.2315
मार्फत	-10.2322
▁स्मरण	-10.2334
▁हिस्सा	-10.2334
▁दिशामा	-10.2339
▁यसैगरी	-10.2339
▁1996	-10.2342
▁मणि	-10.2351
पूजा	-10.2356
84	-10.236
▁युगमा	-10.2361
राष्ट्र	-10.2366
▁गायन	-10.2366
▁नायक	-10.2368
z	-10.2369
▁संविधानसभामा	-10.2372
▁तिनलाई	-10.2373
▁इन्जिन	-10.2385
▁राक्षस	-10.2386
ak	-10.2391
ाईन्छ	-10.2392
▁खुल्ला	-10.2393
पर्ने	-10.2395
▁प्रतिक	-10.2396
▁गीतहरू	-10.2397
▁बढेको	-10.2397
च्छा	-10.2399
पाटी	-10.24
▁गराएका	-10.2402
▁सै	-10.2405
▁पारि	-10.2405
90	-10.2406
▁महेन्द्रले	-10.2407
▁गुम	-10.2407
81	-10.2411
▁कार्यहरू	-10.2436
▁हुनसक्छ	-10.2439
▁दर्जन	-10.2439
▁उल्लेखनीय	-10.2439
▁भाइरस	-10.2439
▁मातृभाषा	-10.2439
▁राय	-10.244
▁राजनीतिज्ञ	-10.2443
▁In	-10.2448
रहने	-10.2452
▁पीडा	-10.2453
ive	-10.2455
0,000	-10.246
▁गाड	-10.2462
भने	-10.2469
▁माथी	-10.2472
hi	-10.248
▁सूचीमा	-10.2481
▁पं	-10.2486
िरहेका	-10.2487
▁हजुर	-10.2491
▁पोथी	-10.2496
▁औषधी	-10.2499
शाह	-10.2501
▁वडाहरू	-10.2503
▁मुख्यालय	-10.2505
▁टिमले	-10.2506
▁भनें	-10.2513
▁फेर	-10.2516
▁70	-10.2517
▁एकमात्र	-10.2525
▁सधै	-10.2529
▁छोडेर	-10.2532
युग	-10.2535
▁खल	-10.2536
▁नित्य	-10.2537
▁क्लबले	-10.2539
▁ताप्लेजुङ	-10.2543
▁दुर्घटना	-10.2543
▁बनारस	-10.2543
▁पाँचथर	-10.2546
▁अधिकतम	-10.2548
▁वु	-10.2553
गुरु	-10.2554
▁चिनी	-10.2563
▁विमल	-10.2565
80	-10.2566
▁व्यापारी	-10.2581
ट्टी	-10.2582
▁उचाइमा	-10.2585
िंदै	-10.2588
▁नक्षत्र	-10.2596
▁श्लोक	-10.2596
▁यसप्रकार	-10.2596
▁वर्ल्ड	-10.2598
▁ब्लग	-10.2598
▁परी	-10.2599
▁नष्ट	-10.2599
▁असफल	-10.2599
▁ब्रह्मा	-10.2602
▁थुम	-10.2603
▁सम्झना	-10.2608
त्त्व	-10.2614
▁बस्तु	-10.2617
▁शास्त्रीय	-10.262
▁क्वा	-10.2632
योग्य	-10.2635
विरुद्ध	-10.2638
▁खडा	-10.264
▁राजीनामा	-10.2649
▁तुलसी	-10.2649
▁लेनिन	-10.265
▁यिनका	-10.2652
▁स्वरुप	-10.2655
▁can	-10.2659
▁सन्दर्भ	-10.2671
▁पर्सा	-10.2671
मूल	-10.2673
▁तत्काल	-10.2676
▁भेरी	-10.2676
▁इतिहासकार	-10.2691
्लु	-10.2691
▁खर	-10.2694
ph	-10.2698
झैँ	-10.2702
▁पुरूष	-10.2703
▁भूटान	-10.2704
▁धनगढी	-10.2705
▁पतन	-10.2708
▁प्रभावकारी	-10.2708
मुल	-10.2711
▁आफुलाई	-10.2711
▁हात्ती	-10.2712
▁नसक्ने	-10.2715
▁पाई	-10.2717
▁44	-10.2728
▁धनुषा	-10.2738
▁अर्ध	-10.2739
▁खिच	-10.2748
▁no	-10.275
▁आध्यात्मिक	-10.2757
▁इजरायल	-10.2757
▁रोनाल्डो	-10.2757
▁रावण	-10.2757
▁गोल्डकप	-10.2757
▁युक्त	-10.2757
▁ज्वाला	-10.2757
▁लोकतन्त्र	-10.2759
▁चामल	-10.2762
=	-10.2764
▁आर्मी	-10.2765
▁शिला	-10.2766
▁प्रसार	-10.277
▁दुनिया	-10.2771
▁बादल	-10.2772
▁काला	-10.2774
▁घेर	-10.2775
▁500	-10.2778
ावस्था	-10.278
▁क्रिस्	-10.2785
to	-10.2787
▁दाना	-10.2791
पट्टि	-10.2793
▁प्रहार	-10.2794
जार	-10.2797
▁चोट	-10.2801
▁समारोह	-10.2811
▁बलिउड	-10.2811
▁बुटवल	-10.2811
▁मंसिर	-10.2811
▁अफ्रिकी	-10.2811
ियाँ	-10.2817
स्कृत	-10.283
भाषी	-10.283
▁पारेर	-10.2838
▁वर	-10.2838
▁टुक्रा	-10.2848
▁जै	-10.2851
▁म्यान	-10.2863
▁from	-10.2865
▁युनियन	-10.2865
▁उत्सव	-10.2865
▁कान्छा	-10.2865
ग्री	-10.2866
▁मुख्यतया	-10.2871
▁राख्नु	-10.2872
▁थिएनन्	-10.2891
▁सुनेर	-10.2891
fi	-10.2896
▁भेला	-10.2901
उनी	-10.2905
▁V	-10.2905
▁काशी	-10.2905
one	-10.2907
▁ग्रा	-10.2912
▁गुजरात	-10.292
▁साक्षरता	-10.292
मन्त्र	-10.2931
▁No	-10.2957
▁मनु	-10.2968
हुन	-10.297
▁अफगानिस्तान	-10.2975
▁श्रावण	-10.2975
▁समन्वय	-10.2975
▁दुर्लभ	-10.2975
▁करिव	-10.2975
▁2075	-10.2979
▁विद्वान	-10.3003
नेट	-10.3006
▁पाक	-10.3007
▁चाहि	-10.3017
▁शेयर	-10.303
▁ज्ञानेन्द्र	-10.3037
▁भेगमा	-10.304
शाला	-10.3042
क्रा	-10.3059
इला	-10.3069
अन्तर्गत	-10.3077
▁नजर	-10.308
लियन	-10.3082
▁34	-10.3083
▁अष्ट्रेलिया	-10.3085
▁ऋग्वेद	-10.3085
▁मोर्चा	-10.3086
▁गर्नाले	-10.3092
▁मेल	-10.3092
्‍या	-10.3094
▁गरिरहेका	-10.3095
ian	-10.3097
्दथे	-10.3097
▁टेस्ट	-10.3098
्स्	-10.3102
फोन	-10.3103
िस्तान	-10.3105
दूत	-10.3131
आइ	-10.3134
ॅ	-10.3141
▁ट्रिपल	-10.3141
▁ज्वरो	-10.3141
▁सम्मिलित	-10.3141
▁पण्डित	-10.3141
▁भइरहेको	-10.3144
▁85	-10.3149
▁प्रवृत्ति	-10.315
वत्	-10.3153
ावती	-10.3157
वरण	-10.3158
▁पिपल	-10.316
▁मौका	-10.3166
▁विगत	-10.3167
▁नाति	-10.3172
▁पर्छन्	-10.3175
92	-10.3183
▁थिइन	-10.3183
▁सकिए	-10.3187
▁एएफसी	-10.3197
▁जैविक	-10.3197
▁तसर्थ	-10.3198
▁श्रद्धा	-10.3199
▁रहनु	-10.3199
▁व्यक्तिलाई	-10.3199
▁अधिकृत	-10.32
▁डाक्टर	-10.3201
▁प्रेस	-10.322
▁सङ्ग्रह	-10.3221
▁जानिन्छ	-10.3221
बंध	-10.3237
ुपर्दछ	-10.3239
ॉ	-10.3254
▁युनाइटेड	-10.3254
▁विज्ञापन	-10.3254
▁रमणीय	-10.3254
▁उत्तराखण्ड	-10.3254
▁क्यान्सर	-10.3254
▁चाडपर्व	-10.3255
▁हमला	-10.3255
▁बाहिरी	-10.3257
▁use	-10.3264
tri	-10.3274
▁सेनाले	-10.3278
▁मान्न	-10.3285
▁संस्थाहरू	-10.3306
ट्वान्टी	-10.3311
▁खड्का	-10.3311
▁लिम्बू	-10.3311
▁2071	-10.3313
▁pro	-10.3314
▁मुस्ताङ	-10.3314
सिद्ध	-10.3331
विक्रम	-10.3333
▁आस्था	-10.3334
▁स्वस्थ	-10.3344
our	-10.3345
....	-10.335
▁नेपालकै	-10.335
▁मोर	-10.3353
▁पारी	-10.336
▁नन्द	-10.3367
▁अभ्यास	-10.3368
▁खड्ग	-10.3368
▁स्वस्थानी	-10.3368
▁परिक्रमा	-10.3368
▁बग्ने	-10.3368
▁युनेस्कोले	-10.337
▁फ्रान्सेली	-10.3371
▁लाग्न	-10.3373
▁2028	-10.3374
▁1980	-10.3376
▁चू	-10.3383
▁कार्की	-10.3384
▁बझाङ	-10.3387
▁सज	-10.3393
▁;	-10.3402
ाऊ	-10.3403
▁पुर्याउन	-10.3414
▁धर्मावलम्बी	-10.3414
ंध	-10.3416
▁खड्गजीत	-10.3425
▁फलस्वरूप	-10.3427
▁पैदल	-10.3427
▁थिईन	-10.3428
गंज	-10.343
▁पथ	-10.3437
▁खोप	-10.3441
▁कं	-10.3443
▁दिदी	-10.3446
▁ज्ञात	-10.3446
▁बेर	-10.3452
▁बैक	-10.3461
▁ल्याउने	-10.3464
▁डुब	-10.3467
▁खेलहरू	-10.3471
▁हुदैन	-10.3478
▁फेद	-10.3482
▁आविष्कार	-10.3483
▁सोह्र	-10.3483
▁शामिल	-10.3485
▁राजदूत	-10.3487
▁तान	-10.349
▁सामग्रीहरू	-10.3498
▁श्रृंखला	-10.3504
▁तन्त्र	-10.3512
▁प्यार	-10.3516
पर्व	-10.3518
▁सहमति	-10.3524
▁लम	-10.3524
▁तालिम	-10.3529
पश्चात	-10.3535
▁गजल	-10.3542
्खा	-10.3542
▁बिरुवा	-10.3545
्से	-10.3545
▁55	-10.3545
▁बोलिने	-10.3553
▁भेटिन्छ	-10.356
ab	-10.3566
▁योजनाहरूमा	-10.3572
▁लय	-10.3573
▁दोष	-10.3574
▁फ्ल	-10.3576
▁चतुर	-10.3576
and	-10.3579
पत्ति	-10.3587
प्रकाश	-10.3597
▁दार्शनिक	-10.36
▁सुनुवार	-10.36
▁छलफल	-10.36
▁बुध	-10.3602
▁2051	-10.3604
जात्रा	-10.3605
da	-10.3605
ंडा	-10.3607
ोदय	-10.361
▁ललित	-10.3614
ass	-10.3615
▁सातौं	-10.3618
▁कालिका	-10.3619
शिया	-10.3622
▁प्रिय	-10.3628
ोत्तर	-10.3637
जुन	-10.3641
▁तोड	-10.3642
▁तय	-10.3652
कुण्ड	-10.3657
▁प्रशिक्षण	-10.3659
▁सिंहदरबार	-10.3659
▁सुनिश्चित	-10.3659
▁साधारणतया	-10.3659
▁अखिल	-10.3659
▁खगोल	-10.3659
▁म्याग्दी	-10.3659
▁महाकवि	-10.3659
▁गहना	-10.3659
▁खराब	-10.3662
▁अरुण	-10.3666
▁निर्मल	-10.3669
▁उडान	-10.3669
▁जैन	-10.3672
▁गाइड	-10.3672
जन्य	-10.3674
▁+	-10.3676
▁सहयोगी	-10.3687
▁कक्ष	-10.369
▁सिख	-10.3691
▁ग्ल	-10.3693
▁चित्त	-10.3696
▁दमन	-10.3707
ard	-10.3712
▁समुदायका	-10.3716
▁डिजाइन	-10.3718
▁बृहत	-10.3718
▁पछाडी	-10.3718
सक्ने	-10.3725
वो	-10.3735
▁यश	-10.3735
▁सत्र	-10.3738
▁नदीहरू	-10.3741
▁सवारी	-10.3741
त्यस	-10.3743
▁नैतिक	-10.3744
▁कथाहरू	-10.3745
चौ	-10.3747
▁वृद्ध	-10.3756
▁56	-10.3756
▁पञ्चायती	-10.3756
▁आउ	-10.3758
▁जातिहरू	-10.3766
▁भलिबल	-10.3777
.2068	-10.3777
▁this	-10.3777
▁महात्मा	-10.3779
▁दौड	-10.3779
▁लडे	-10.3781
▁सिनेमा	-10.3783
▁साविकको	-10.3792
▁राति	-10.3793
▁जर्ज	-10.38
▁अर्ब	-10.3804
▁रोमन	-10.3808
▁37	-10.3827
ाञ्च	-10.3831
▁आइन्स्टाइन	-10.3836
▁दार्चुला	-10.3837
▁देउराली	-10.3837
▁प्रचण्ड	-10.3837
▁प्रताप	-10.3843
▁तुल्य	-10.3844
▁बर्ग	-10.3851
▁भोटे	-10.3857
▁1950	-10.3862
▁दायित्व	-10.3897
▁काँग्रेस	-10.3897
▁शहीद	-10.3897
▁कारोबार	-10.3898
▁शाक्य	-10.3898
▁भवानी	-10.3898
मृत	-10.39
▁तिनै	-10.39
▁मृतक	-10.3901
▁देशान्तर	-10.3903
▁पैदा	-10.3905
▁लघु	-10.3906
▁51	-10.3906
▁होटल	-10.3909
▁उनकै	-10.391
▁•30	-10.391
धारण	-10.3914
▁साह	-10.3924
▁परिकार	-10.3925
▁गोर्खाली	-10.3925
▁सल्	-10.3929
▁भन्छ	-10.3929
.4	-10.3931
▁बिक्रम	-10.3931
▁बोध	-10.3935
-2	-10.3945
52	-10.3947
▁दया	-10.3951
▁लगाएका	-10.3954
▁जलविद्युत	-10.3958
▁सिफारिस	-10.3958
▁सनातन	-10.3958
▁प्रतिरोध	-10.3958
पन्न	-10.3959
▁52%	-10.396
▁वैद्य	-10.3961
▁वीरेन्द्र	-10.3961
▁48%	-10.3962
▁विश्वव्यापी	-10.3962
▁मतदान	-10.3968
▁उचाइ	-10.3971
▁नभएका	-10.3974
जनक	-10.3979
▁राखिन्छ	-10.3984
▁सामना	-10.3985
▁जापानी	-10.3988
▁देखाउन	-10.3993
▁मेघ	-10.3994
▁भारी	-10.3994
▁रोक्न	-10.3999
▁बसाई	-10.4004
बर्ग	-10.4006
▁वर्षपछि	-10.4015
ग्रन्थ	-10.4016
जस्तै	-10.4017
▁Sites	-10.4019
▁न्यायाधीश	-10.4019
▁फलफूल	-10.4019
▁विरूद्ध	-10.4019
▁फाइदा	-10.4019
▁समृद्ध	-10.402
▁38	-10.4025
tra	-10.4029
▁1947	-10.4031
▁निवासी	-10.4054
78	-10.4058
▁साफ	-10.406
▁सिद्धि	-10.4062
▁गीतकार	-10.4064
ायत	-10.4067
70	-10.4072
85	-10.4073
गठित	-10.4076
ine	-10.4079
▁Heritage	-10.408
▁ध्रुव	-10.408
▁कुँवर	-10.408
▁फोटो	-10.4085
▁जनतालाई	-10.4086
▁करियर	-10.4087
ck	-10.4089
▁तत्त्व	-10.409
▁बढाए	-10.4093
आउट	-10.4095
िसकेको	-10.4111
▁मुख्यत	-10.4114
▁जन्मिए	-10.4125
जाति	-10.4129
रेखा	-10.4132
R	-10.4138
▁गेम	-10.4138
गंगा	-10.414
▁कार्यान्वयन	-10.4142
▁हिरण्य	-10.4143
▁जागीर	-10.4145
▁गुम्बा	-10.4151
▁थिय	-10.4153
▁प्रतिबन्ध	-10.4155
▁लगाइ	-10.4161
▁बत्ती	-10.4161
▁आहार	-10.4169
▁मोटर	-10.417
▁शोध	-10.4171
ञ्जन	-10.4171
▁सुदूर	-10.4175
▁गाए	-10.4188
▁कांग्रेसका	-10.4189
.8	-10.4199
▁पुर्‍याए	-10.4204
▁वयस्क	-10.4204
▁ग्रामीण	-10.4204
▁शिष्य	-10.4206
▁दायाँ	-10.4208
▁माधव	-10.4209
▁अभिव्यक्ति	-10.421
▁गोल्ड	-10.4214
ध्वज	-10.4214
▁फिलिप	-10.4221
▁सानै	-10.4238
▁अण्डा	-10.4246
▁नामकरण	-10.4246
▁किनार	-10.4248
द्वीप	-10.4266
▁धवलागिरी	-10.4267
▁सर्लाही	-10.4267
▁कुखुरा	-10.4267
▁विरुवा	-10.4267
▁वर्गिकरण	-10.4271
▁पशुपतिनाथ	-10.4271
▁1992	-10.4275
▁राखियो	-10.428
▁विश्वकै	-10.4285
▁आकृति	-10.4285
▁चाहिँ	-10.4286
▁सवै	-10.4287
mo	-10.429
▁चलाउन	-10.4295
▁श्रीराम	-10.4306
▁दृष्टिकोण	-10.4306
▁बक्स	-10.4315
▁रोगी	-10.4319
प्रो	-10.4322
▁धामी	-10.4323
एच	-10.4323
▁मनोरञ्जन	-10.4328
▁झैं	-10.4329
▁कोदो	-10.433
▁लक्ष्मण	-10.433
▁निम्नलिखित	-10.433
▁पारिवारिक	-10.433
▁आपूर्ति	-10.433
▁बस्न्यात	-10.433
▁दशरथ	-10.433
▁मलेसिया	-10.433
▁केशव	-10.433
▁ex	-10.4331
▁मनोरञ्जनात्मक	-10.4331
न्डा	-10.4336
्नुपर्ने	-10.434
डोर	-10.4354
▁केन्द्रिय	-10.4362
no	-10.4366
▁तथापि	-10.4366
▁क्षण	-10.4377
▁भरी	-10.4382
▁थान	-10.4383
▁निस्के	-10.4385
▁बसी	-10.4389
▁you	-10.4391
▁परिभाषित	-10.4393
▁मैथिली	-10.4393
▁सर्वसाधारण	-10.4393
▁आपसमा	-10.4393
▁बिषय	-10.4393
▁एकीकृत	-10.4394
▁खनाल	-10.4395
▁सँ	-10.44
▁थालिएको	-10.4401
▁रोड	-10.4409
्न्	-10.441
▁नाउँ	-10.4424
ion	-10.4436
षित	-10.444
▁लगा	-10.4443
ud	-10.4447
ies	-10.4451
▁उज्यालो	-10.4457
▁बहुदलीय	-10.4457
▁वन्यजन्तु	-10.4457
▁संरक्षित	-10.4457
▁दुइटै	-10.4457
▁इटाली	-10.4457
▁सुरूवात	-10.4457
▁कथन	-10.4458
▁कलम	-10.446
▁सामु	-10.4462
▁सहकारी	-10.4462
▁बनायो	-10.4466
▁1995	-10.4466
▁भोज	-10.4467
भिन्न	-10.4468
▁गड	-10.447
▁कण	-10.4471
▁बीपी	-10.4473
ga	-10.4477
ill	-10.4478
▁अनन्त	-10.4481
▁ट्रा	-10.4483
सुदूरपश्चिमाञ्चल	-10.4489
▁राती	-10.449
▁कपाल	-10.4492
▁गोरु	-10.4496
▁निकाले	-10.4498
्नुहोस	-10.4507
हरि	-10.4516
▁मस्तिष्क	-10.4521
▁अक्षांश	-10.4521
▁गूगल	-10.4521
▁गिरिजा	-10.4521
▁दुल्लु	-10.4521
मन्दिर	-10.4521
▁सक्षम	-10.4523
▁पुलिस	-10.4526
भाइ	-10.4527
▁दिइयो	-10.4531
▁उठाउने	-10.4537
▁साधना	-10.4549
▁महान्	-10.4553
▁बढाउन	-10.4563
▁जगत्	-10.457
▁48	-10.4571
▁आकर्षक	-10.4585
▁जाजरकोट	-10.4585
▁सम्बोधन	-10.4585
▁सापेक्ष	-10.4585
▁रमाइलो	-10.4585
▁राम्ररी	-10.4585
▁गुणस्तर	-10.4588
▁महाराष्ट्र	-10.4589
▁तीव्र	-10.459
▁अन्तरिम	-10.4592
क्षय	-10.4592
▁मिडिया	-10.4592
▁1970	-10.4593
▁ट्रे	-10.4595
▁हुदा	-10.4614
▁गौरी	-10.4614
▁फर्किए	-10.4619
ip	-10.463
▁Ma	-10.463
फ्र	-10.4634
ृष	-10.4635
▁हिउँद	-10.4637
▁मिल्ने	-10.4637
▁लेखनाथ	-10.4638
▁43	-10.4643
ञ	-10.4648
▁महानिरीक्षक	-10.465
▁उम्मेदवार	-10.465
▁रासायनिक	-10.465
▁देवनागरी	-10.465
▁कोलकाता	-10.465
▁जहा	-10.4651
▁300	-10.4652
▁आँसु	-10.4658
▁मनोरम	-10.4663
▁चारै	-10.4664
▁साविकका	-10.4677
वर्ण	-10.4678
▁65	-10.4684
▁शेर	-10.4689
▁प्ला	-10.469
▁बनेपा	-10.4692
ल्हो	-10.4695
▁कमि	-10.4706
▁अत्याधिक	-10.4715
▁क्याल्सियम	-10.4715
▁संक्रमण	-10.4715
▁बिजुली	-10.4716
▁मंगोल	-10.4716
▁गाबिस	-10.4716
▁दर्जा	-10.4718
▁1960	-10.4726
▁उपदेश	-10.4736
▁नगर्ने	-10.4738
▁प्रयोगकर्ता	-10.474
▁दैव	-10.4747
▁पात्रो	-10.4759
▁अग्ला	-10.4762
▁बढे	-10.477
▁सरे	-10.4772
ell	-10.4779
▁अनुयायी	-10.4781
▁निर्धारित	-10.4781
▁सेल्सियस	-10.4781
▁त्रुटि	-10.4781
▁आफ्नी	-10.4781
▁राङ	-10.4784
▁हेम	-10.4785
▁समथर	-10.4786
▁म्याक	-10.4788
▁नोट	-10.4788
▁1993	-10.4791
▁एकदमै	-10.4795
▁गान्धीजी	-10.4796
▁पायो	-10.4798
.7	-10.48
▁निगम	-10.48
▁दृष्टिकोणले	-10.4806
▁सुन्दरी	-10.4807
▁बाला	-10.4829
▁नारा	-10.4834
▁जुट	-10.4838
▁अवशेष	-10.4847
▁ध्वनि	-10.4847
▁भिक्षु	-10.4847
▁अपेक्षा	-10.4848
▁घेरा	-10.4848
▁शंख	-10.4849
▁उद्गम	-10.4849
▁बाबुराम	-10.4854
▁le	-10.4856
▁शासनकालमा	-10.4857
दिए	-10.4865
▁आज्ञा	-10.4865
▁39	-10.4869
▁पाउनु	-10.4878
▁चुरे	-10.4879
▁दाल	-10.488
▁क्यान	-10.4887
ानुसार	-10.4893
ल्म	-10.4897
शाली	-10.49
▁पारो	-10.4902
वृत्त	-10.4913
▁पुष्प	-10.4914
▁पोर्चुगल	-10.4914
▁संयोजक	-10.4914
▁थोरियम	-10.4914
▁अवकाश	-10.4914
▁आलु	-10.4915
▁वीरेन्द्रनगर	-10.4916
▁2047	-10.492
▁टाइम	-10.492
▁हास्य	-10.4924
▁बिस्तारै	-10.4924
▁महल	-10.4932
▁सधैं	-10.4933
▁बाह्य	-10.4935
▁हुन्थे	-10.4936
▁गराई	-10.4937
▁गाडी	-10.494
ल्लाह	-10.4953
▁पखाल	-10.4961
▁हाई	-10.4963
राजा	-10.4964
▁पढाइ	-10.4965
▁सती	-10.4966
गाई	-10.4968
▁धाम	-10.4975
▁अाफ्नो	-10.4981
▁व्यवस्थित	-10.4981
▁सुब्बा	-10.4981
▁प्रार्थना	-10.4981
▁क्षत्रिय	-10.4981
▁सुदूरपश्चिम	-10.4982
▁थाल्छ	-10.4986
कार्य	-10.4989
▁अल्प	-10.4989
▁हुनुभएको	-10.4991
▁se	-10.4992
▁गढी	-10.4993
▁मोड	-10.4997
▁पुगेर	-10.5006
▁बिश्व	-10.5017
▁चाप	-10.5017
▁चित्रण	-10.502
==	-10.5025
▁घटनाहरू	-10.5026
▁टेलि	-10.5026
नियम	-10.5038
न्द्रा	-10.5043
▁नाश	-10.5043
▁सत्	-10.5047
▁पुरातात्विक	-10.5049
▁प्रयत्न	-10.5049
▁ब्रिटेन	-10.5049
▁झण्डै	-10.5049
▁आयोजक	-10.5049
▁प्रसन्न	-10.5049
▁खतरा	-10.505
शिक्षित	-10.505
▁लिइ	-10.5053
▁गहुँ	-10.5055
▁2065	-10.5056
▁कालु	-10.5062
▁खेलेको	-10.5062
▁इरान	-10.5064
▁जितेका	-10.5065
▁पढाई	-10.5073
▁नाता	-10.5074
स्थिति	-10.5084
▁शुल्क	-10.5091
कन्या	-10.5105
▁एकदम	-10.5109
▁चिकित्सक	-10.5117
▁नाइट्रोजन	-10.5117
▁इङ्गल्याण्ड	-10.5117
▁अनुरोध	-10.5117
▁प्रयोजन	-10.5117
▁महसुस	-10.5117
▁जवाफ	-10.5117
▁हाउस	-10.5117
▁राजकीय	-10.5117
▁हल्का	-10.512
▁रहस्य	-10.5122
▁1987	-10.5127
▁52	-10.5129
▁उनै	-10.5134
दायक	-10.5136
▁अरबी	-10.5137
▁सिमित	-10.514
ub	-10.5144
▁कष्ट	-10.5145
▁लेखिएका	-10.515
▁प्रज्ञा	-10.5173
▁बन्दै	-10.5184
▁दीर्घ	-10.5185
▁परशुराम	-10.5185
▁काभ्रे	-10.5185
▁फाँट	-10.5185
▁गौरव	-10.5188
▁जेष्ठ	-10.5192
▁जनाउँछ	-10.5194
▁प्रत्या	-10.5196
चरण	-10.5197
▁टावर	-10.5198
▁मिलन	-10.5198
▁बोकेर	-10.52
चिन	-10.5201
▁राजस्थान	-10.5202
▁सरदार	-10.5204
▁नेपालभाषा	-10.5206
▁उपहार	-10.5207
▁उत्तम	-10.5209
▁आबद्ध	-10.521
▁प्यारा	-10.522
स्थापना	-10.5225
▁वाइ	-10.5226
▁पेश	-10.523
ासाथ	-10.5236
▁सिसा	-10.5243
▁अहिंसा	-10.5254
▁भारदार	-10.5255
▁जिम्मा	-10.5256
▁सूचक	-10.5256
▁we	-10.5256
▁दाहाल	-10.5259
▁बज्र	-10.526
▁साझेदारी	-10.5265
▁उपलब्धि	-10.5269
▁क्रमश	-10.528
चुली	-10.5284
क्रिया	-10.5289
▁मोती	-10.5292
ure	-10.5297
▁बिहे	-10.5301
्नुपर्छ	-10.5302
टेड	-10.5319
▁फेला	-10.5322
▁एजेण्डा	-10.5324
▁समर्पित	-10.5324
▁दार्जीलिङ	-10.5324
▁सोडियम	-10.5324
▁बाजुरा	-10.5324
▁जाँच	-10.5324
▁सिराहा	-10.5324
▁स्वागत	-10.5328
▁नरेन्द्र	-10.5331
▁ब्रिटिस	-10.5333
▁धर्मावलम्बीहरू	-10.5337
▁माघे	-10.5338
दायी	-10.5342
▁सेयर	-10.5343
▁आफैं	-10.5353
▁चयन	-10.5353
्छिन्	-10.5354
▁सट्टा	-10.5354
71	-10.5356
▁वित्त	-10.5357
▁ग्रे	-10.5388
केन्द्र	-10.5389
▁अधीन	-10.5394
▁ठाकुर	-10.5394
▁हरियाणा	-10.5394
▁पक्राउ	-10.5394
▁चिन्तन	-10.5394
▁लघुकथा	-10.5394
▁रेडियम	-10.5395
▁संक्रान्ति	-10.5398
▁बोक्रा	-10.54
▁मान्दछन्	-10.54
▁400	-10.5402
▁सेनापति	-10.5404
▁वेस्ट	-10.5415
▁मुख्यतः	-10.5419
▁समझ	-10.5423
▁अम्ल	-10.5426
age	-10.5437
▁नुन	-10.5447
▁उनीहरूलाई	-10.5459
▁मेडिकल	-10.5464
▁वर्गकिलोमिटर	-10.5464
▁कलकत्ता	-10.5464
▁पूजाआजा	-10.5464
▁सुझाव	-10.5464
▁सुबिधा	-10.5464
▁ल्याटिन	-10.5464
▁एघार	-10.5464
▁मैनाली	-10.5464
गुण	-10.5465
▁आलोचना	-10.5465
▁यिनलाई	-10.5465
▁साथसाथै	-10.5467
▁कम्प	-10.5495
▁बढाउने	-10.551
खेत	-10.5514
▁क्लिक	-10.5522
मुक्त	-10.5533
▁पोटासियम	-10.5535
▁युइएफए	-10.5535
▁मधेस	-10.5535
▁खरिद	-10.5535
▁सजाय	-10.5539
▁सुवर्ण	-10.5542
▁पुर्ण	-10.5543
mm	-10.5553
▁अधिन	-10.5559
▁प्रजातिहरू	-10.5559
▁गर्द	-10.5568
▁बजेट	-10.5571
▁जनाएको	-10.5573
▁ठोक	-10.5578
झो	-10.5596
▁ग्वा	-10.5601
▁वाक्य	-10.5604
▁श्रृङ्खला	-10.5606
ऽ	-10.5606
▁युरेनियम	-10.5606
▁पूरै	-10.5607
▁कात्तिक	-10.5607
▁यमुना	-10.5608
साहित्य	-10.5614
दक्षिण	-10.5614
ाएपछि	-10.5615
▁पर्‍यो	-10.5616
नुसार	-10.5643
▁नेताहरू	-10.5645
▁क्यु	-10.5649
सत्ता	-10.5652
▁दण्ड	-10.5662
झैं	-10.5664
▁हिन्द	-10.5671
▁पर्यो	-10.5675
▁सञ्च	-10.5678
▁विकिभोएजबाट	-10.5678
▁अयोध्या	-10.5678
▁दैत्य	-10.5679
▁टेलिफोन	-10.5679
▁कञ्चनपुर	-10.5681
▁अनुपात	-10.5685
▁1986	-10.5691
▁विद्वानहरू	-10.5692
ity	-10.5693
▁वस्तुहरू	-10.5699
▁108	-10.5702
pp	-10.5708
▁हजारौं	-10.5717
▁समानता	-10.5717
▁भक्तजन	-10.5725
वेश	-10.5728
▁मुस्क	-10.5729
▁अादि	-10.5732
ach	-10.5738
▁पुर्याए	-10.5739
▁बाह	-10.5744
▁पाठक	-10.5745
▁आमसञ्चार	-10.5751
▁मेगाहर्ज	-10.5751
▁प्रेरणा	-10.5751
▁विपरीत	-10.5751
▁इण्डिया	-10.5751
▁पहुँच	-10.5751
▁लैजान	-10.5751
▁ठोस	-10.5754
▁बताइएको	-10.5754
▁चिन्ता	-10.5757
परिवार	-10.5758
परिषद	-10.5759
▁अतः	-10.576
▁ढकाल	-10.5762
▁पौष	-10.5773
प्पा	-10.5782
▁बोलिन्छ	-10.5798
all	-10.58
▁संघीय	-10.58
▁फ्रे	-10.581
िसकेका	-10.581
▁एकजना	-10.5811
▁कृत	-10.5817
▁बरु	-10.5819
Y	-10.5823
▁error	-10.5824
▁घाइते	-10.5824
▁प्लेटिनम	-10.5824
▁गढवाल	-10.5824
▁आयोडिन	-10.5824
▁प्रतिवेदन	-10.5824
▁अनुशार	-10.5824
▁शिलालेख	-10.5824
▁आतंक	-10.5824
▁साउदी	-10.5824
▁बिजेता	-10.5824
▁पोलि	-10.5824
▁will	-10.5825
▁निम्नानुसार	-10.5826
▁सङ्घर्ष	-10.5826
▁2052	-10.5828
▁सशक्त	-10.5829
▁कोमल	-10.5829
▁हाँगा	-10.5829
▁पर्दैन	-10.5831
▁2054	-10.5832
▁वरपर	-10.5832
दृश्य	-10.5833
ence	-10.5833
▁निस्कने	-10.5836
▁भिड	-10.5837
fe	-10.5842
▁स्तरीय	-10.5855
संस्था	-10.5861
▁बिदा	-10.5864
विद्या	-10.5864
ll	-10.5865
▁साइट	-10.5866
▁वार्ड	-10.5868
▁उदार	-10.5888
ì	-10.5897
▁उपनिवेश	-10.5897
▁कर्नाटक	-10.5897
▁लिच्छवी	-10.5897
▁कारखाना	-10.5897
▁जलवायु	-10.5897
▁दशमलव	-10.5897
▁विद्यमान	-10.5897
▁बिरुद्ध	-10.5897
▁आगमन	-10.5898
▁ढाड	-10.5899
por	-10.59
▁भूमिगत	-10.5905
▁744	-10.5907
▁जनै	-10.5912
▁डाइ	-10.5919
▁प्रयुक्त	-10.5926
▁केटा	-10.5931
▁रहँदै	-10.5936
▁पर्यटकहरू	-10.5951
▁सिन्धु	-10.596
▁हस्त	-10.5962
▁विहार	-10.5968
}	-10.5971
▁म्याड्रिड	-10.5971
▁लैङ्गिक	-10.5971
▁शृङ्खला	-10.5971
▁हैसियत	-10.5971
▁आइसिसी	-10.5971
▁पीडित	-10.5972
▁पुर्‍याउन	-10.5972
▁खोले	-10.5977
▁भोक	-10.5979
▁चारवटा	-10.5981
पुराण	-10.5982
▁71	-10.5984
▁आराधना	-10.5989
▁खोजे	-10.5997
वर्धन	-10.6018
▁जोड्ने	-10.602
▁संगम	-10.602
▁व्यवसायिक	-10.6028
▁धनु	-10.6036
▁आउँछन्	-10.6043
▁राखि	-10.6044
▁म्याग्नेसियम	-10.6046
▁वरिष्ठ	-10.6046
▁सकारात्मक	-10.6046
▁पुँजी	-10.6046
▁सिलिकन	-10.6046
▁अगस्त	-10.6046
▁पेरिस	-10.6047
per	-10.6048
▁वीरगञ्ज	-10.6048
▁मोडेल	-10.6049
▁अन्ततः	-10.605
▁अघिल्लो	-10.6052
▁2056	-10.6053
▁मान्छेहरू	-10.6055
▁रोयल	-10.6056
▁बिताए	-10.6057
पुरुष	-10.6058
▁साहस	-10.6058
▁यात्री	-10.6059
▁वृक्ष	-10.6063
ical	-10.6065
ag	-10.6066
▁ल्याइ	-10.6069
▁ब्रे	-10.6072
▁घोर	-10.6076
▁आग्रह	-10.6078
▁राष्ट्रीय	-10.6079
▁पालना	-10.6088
▁न्यून	-10.6092
▁भूत	-10.61
राज्य	-10.6101
▁स्‍	-10.6103
▁बनाउँछ	-10.6112
▁ओखलढुङ्गा	-10.6121
▁बताउनुहुन्छ	-10.6121
▁बिराटनगर	-10.6121
▁मेक्सिको	-10.6121
▁रुपैयाँ	-10.6121
▁शताब्दि	-10.6121
▁चुनौती	-10.6121
▁उष्ण	-10.6121
▁खालका	-10.6124
▁घाउ	-10.6125
▁बताइन्छ	-10.6125
▁रहँदा	-10.6125
▁मैत्री	-10.6127
▁2069	-10.6128
▁प्रस्तुति	-10.6131
▁भिज	-10.6135
▁नेवारी	-10.6136
▁यजुर्वेद	-10.6136
▁कुशल	-10.6143
▁गराउनु	-10.6145
▁आसाम	-10.615
▁संचार	-10.6159
व्यापी	-10.616
▁लिंग	-10.6163
▁घना	-10.6165
सेना	-10.617
परेको	-10.6174
▁कीरा	-10.6183
▁गया	-10.6186
▁उठाए	-10.6187
▁चौकी	-10.6191
▁विधिवत	-10.6195
▁खेल्दै	-10.6196
▁लिथियम	-10.6197
▁घरधुरी	-10.6197
▁दमौली	-10.6197
▁सल्फर	-10.6198
▁परिवेश	-10.6199
▁राधा	-10.6207
▁गर्नुहोस्	-10.6209
G	-10.6209
▁तत्वहरू	-10.6214
▁भिर	-10.6219
▁यता	-10.6227
ोलोजी	-10.623
▁बिष्ट	-10.6235
▁चर्च	-10.6238
sc	-10.6239
▁बन्छ	-10.6248
म्यान	-10.6249
▁स्तूप	-10.6273
@	-10.6273
▁have	-10.6273
▁पत्थर	-10.6273
▁सेढाई	-10.6273
▁मिथिला	-10.6273
▁बाक्लो	-10.6273
▁मञ्च	-10.6274
▁बेरियम	-10.6274
▁सञ्चालक	-10.6274
▁तालीम	-10.6275
▁अर्थव्यवस्था	-10.6275
मिति	-10.6277
▁2062	-10.6279
▁नक्सा	-10.6281
ठूला	-10.6286
▁1945	-10.629
यन्त्र	-10.6295
▁बाफ	-10.6295
▁बनाइन्छ	-10.6295
▁ज्याक	-10.6299
ग्रस्त	-10.6304
▁मिल्छ	-10.6313
▁53	-10.6318
▁चौध	-10.632
ary	-10.6327
्दु	-10.6336
Location	-10.635
▁गिरफ्तार	-10.635
▁आम्दानी	-10.635
▁अज्ञात	-10.635
▁क्यानाडा	-10.635
▁महारानी	-10.6351
▁पुर्खा	-10.6352
▁सल्लाहकार	-10.6357
▁वस्ती	-10.6358
▁खैरो	-10.636
▁बनाइयो	-10.6371
▁गर्नुपर्दछ	-10.6374
▁बचाउन	-10.6375
यज्ञ	-10.638
उँदो	-10.638
▁खुसी	-10.6386
▁चाहना	-10.6386
▁बिन्दु	-10.6389
▁पाइला	-10.6408
▁Ch	-10.6419
▁लाग्नु	-10.6425
▁क्यालिफोर्निया	-10.6428
▁प्युठान	-10.6428
▁प्लुटोनियम	-10.6428
▁मस्जिद	-10.6428
▁आश्विन	-10.6428
▁आन्ध्र	-10.6428
▁उपभोग	-10.6428
▁निर्यात	-10.6428
▁एक्लै	-10.6428
▁योद्धा	-10.643
▁प्लेट	-10.6433
▁महिमा	-10.6435
▁गरिसकेका	-10.6437
▁1948	-10.6441
प्रविधि	-10.6442
▁द्वि	-10.6448
▁स्वयम	-10.6452
▁राम्रा	-10.6456
संघ	-10.6463
▁जनावरहरू	-10.6472
▁पुज	-10.6486
▁भइन्	-10.6491
▁डट	-10.6497
▁क्लोरिन	-10.6506
▁बिस्मथ	-10.6506
▁झन्डै	-10.6506
▁सङ्केत	-10.6506
://	-10.6506
▁नेशनल	-10.6507
▁गर्दथ्यो	-10.6508
▁आधारभूत	-10.6509
▁समर्थक	-10.651
▁श्वास	-10.6512
▁—	-10.6514
देखी	-10.6524
▁आयाम	-10.6526
▁किनकि	-10.6526
▁सुन्दरता	-10.6531
▁आवास	-10.6538
va	-10.6548
▁आर्ट	-10.6554
▁टिमहरू	-10.6556
rm	-10.6564
▁शीतल	-10.6574
▁हिसाब	-10.6577
▁ग्यालियम	-10.6585
▁उद्घाटन	-10.6585
▁हेलियम	-10.6585
▁जुनसुकै	-10.6585
▁चण्डी	-10.6585
▁शेष	-10.6586
▁आर्गन	-10.6586
▁लोकगीत	-10.6587
▁po	-10.6589
▁लागत	-10.6589
▁प्रमाणपत्र	-10.659
▁सीमाना	-10.6592
▁प्रदायक	-10.6594
▁1975	-10.6597
▁1988	-10.6598
▁मिल्दछ	-10.6599
र्‍यो	-10.6601
▁सर्ने	-10.6601
▁तमिल	-10.6604
▁लुगा	-10.6608
▁भरिएको	-10.6611
▁साविक	-10.6614
▁तालिका	-10.6615
▁बङ्गाली	-10.6623
▁रोजगारी	-10.6626
tes	-10.6639
.....	-10.6652
▁पंच	-10.6655
साइट	-10.6658
▁मानवीय	-10.666
▁झोल	-10.6661
▁एमरिशियम	-10.6664
▁क्रोमियम	-10.6664
▁बनावट	-10.6664
▁शाब्दिक	-10.6664
▁सोलुखुम्बु	-10.6664
▁इन्डियम	-10.6664
▁पारित	-10.6664
▁प्रेरित	-10.6664
▁शून्य	-10.6664
▁बगाले	-10.6666
▁नियोन	-10.6666
▁ब्रम्ह	-10.6667
▁आउँदा	-10.6668
▁2060	-10.667
्याउन	-10.6677
▁कस्तो	-10.6682
बोध	-10.6687
राष्ट्रिय	-10.6688
▁मित्रता	-10.6689
▁भद्र	-10.6706
▁सिकार	-10.6716
▁क्याड्मियम	-10.6744
▁टङ्स्टेन	-10.6744
▁टाइटानियम	-10.6744
▁फोस्फरस	-10.6744
▁बर्क्लियम	-10.6744
▁बेरिलियम	-10.6744
▁क्रिप्टन	-10.6744
▁संचालित	-10.6744
▁मधेश	-10.6744
▁उत्तिकै	-10.6744
▁पशुपालन	-10.6744
▁लण्डन	-10.6745
▁वाहेक	-10.6745
▁आइन्स्टाइनियम	-10.6745
▁कठोर	-10.6745
▁नोबेलियम	-10.6745
▁फ्लोरिन	-10.6749
▁2027	-10.6749
▁मुर्ति	-10.6756
▁प्रयोगकर्ताहरू	-10.6757
ाइदिए	-10.6758
▁विशेषज्ञ	-10.676
▁चम्क	-10.6761
▁हुनुपर्ने	-10.6767
हुने	-10.6768
▁आएपछि	-10.6772
▁•31	-10.6773
ाउँदछ	-10.6778
गृह	-10.6797
▁सरह	-10.6799
ग्रि	-10.6804
▁माइल	-10.6819
▁कैद	-10.6824
▁आर्सेनिक	-10.6825
▁इटर्बियम	-10.6825
▁इरिडियम	-10.6825
▁उनुनक्टियम	-10.6825
▁उनुन्क्वाडियम	-10.6825
▁उनुन्पेन्टियम	-10.6825
▁उनुन्बियम	-10.6825
▁उनुन्सेप्टियम	-10.6825
▁उनुन्हेक्सियम	-10.6825
▁एक्टिनियम	-10.6825
▁एन्टिमोनी	-10.6825
▁एस्टटिन	-10.6825
▁क्यालिफोर्नियम	-10.6825
▁क्युरियम	-10.6825
▁ग्याडोलिनियम	-10.6825
▁जर्मेनियम	-10.6825
▁टेलुरियम	-10.6825
▁ट्यान्टलम	-10.6825
▁थ्यालियम	-10.6825
▁दुब्नियम	-10.6825
▁नेप्ट्युनियम	-10.6825
▁प्यालेडियम	-10.6825
▁भेनेडियम	-10.6825
▁मेन्देलिभियम	-10.6825
▁म्याङ्गनिज	-10.6825
▁रुथेनियम	-10.6825
▁रुबिडियम	-10.6825
▁रेन्टगेनियम	-10.6825
▁लरेन्सियम	-10.6825
▁स्क्यान्डियम	-10.6825
▁ह्याफ्नियम	-10.6825
▁ब्रोमिन	-10.6825
▁ह्यासियम	-10.6825
▁बोरियम	-10.6825
▁आख्यान	-10.6825
▁शरिर	-10.6825
▁रोडियम	-10.6826
▁टेलिकम	-10.6826
▁अर्बियम	-10.6826
गीत	-10.6826
▁युरोपियम	-10.6827
▁फ्रान्सियम	-10.6828
▁आरोहण	-10.683
▁टिभी	-10.683
▁रैका	-10.683
▁सम्हाले	-10.683
▁अबु	-10.683
▁पृष्ठभूमि	-10.6833
▁1982	-10.6837
▁वस्त्र	-10.6839
▁विनाश	-10.6846
▁वर्णित	-10.6863
ous	-10.6868
gov	-10.6875
▁साहि	-10.6879
पट्टी	-10.6885
ोइड	-10.6885
हुँ	-10.6886
han	-10.6888
प्रोट्याक्टिनियम	-10.6906
▁अज्मियम	-10.6906
▁इट्रियम	-10.6906
▁उनुन्ट्रियम	-10.6906
▁एल्युमिनियम	-10.6906
▁जर्कोनियम	-10.6906
▁टर्बियम	-10.6906
▁टेक्निसियम	-10.6906
▁डार्मश्टाटियम	-10.6906
▁डिस्प्रोजियम	-10.6906
▁नियोडिमियम	-10.6906
▁नियोबियम	-10.6906
▁प्रेजियोडिमियम	-10.6906
▁प्रोमिथियम	-10.6906
▁फर्मियम	-10.6906
▁मलिब्डेनम	-10.6906
▁माइट्नेरियम	-10.6906
▁रदर्फोर्डियम	-10.6906
▁लुटिशियम	-10.6906
▁ल्यान्थनम	-10.6906
▁सिबोर्गियम	-10.6906
▁स्ट्रन्सियम	-10.6906
▁थुलियम	-10.6906
▁पलोनियम	-10.6906
▁समेरियम	-10.6906
▁होल्मियम	-10.6906
▁प्रायजसो	-10.6906
▁सिजियम	-10.6906
▁सेलेनियम	-10.6906
▁सिरियम	-10.6906
▁कोबल्ट	-10.6906
▁नमुना	-10.6906
▁बोरोन	-10.6906
▁समिती	-10.6907
▁निकेल	-10.6907
▁तैयार	-10.6908
▁जेनन	-10.6908
▁रिनियम	-10.6909
▁स्टेशन	-10.6911
▁कल्प	-10.6911
▁अस्थि	-10.6913
▁थालियो	-10.6914
▁1971	-10.6915
▁तातो	-10.6921
प्राप्त	-10.6926
▁रेडन	-10.6933
▁बागलुङ	-10.6934
▁49	-10.6935
▁छाडेर	-10.694
▁शरण	-10.6943
ोत्तम	-10.6957
▁कागज	-10.696
▁सूचि	-10.6963
▁सिटी	-10.6972
▁ब्रि	-10.6979
▁जसरी	-10.698
▁उत्तीर्ण	-10.6988
▁रणनीति	-10.6988
▁सुवेदी	-10.6988
▁उर्जा	-10.6988
ोज्नुहोस	-10.6993
▁कुस्ती	-10.6997
ढाँचा	-10.7006
▁प्रतिष्ठा	-10.7014
▁ग्रेट	-10.7031
▁गाउने	-10.7043
▁भूषण	-10.7047
▁रहन्छन्	-10.7048
▁लगेर	-10.7061
▁दोहोर	-10.7062
▁गराइ	-10.7062
▁he	-10.7063
]	-10.707
▁गोदावरी	-10.7071
▁प्रह्लाद	-10.7071
▁बार्सिलोना	-10.7071
▁पखेटा	-10.7071
▁तस्बिर	-10.7071
▁शिवाजी	-10.7071
▁शिर्ष	-10.7074
▁लिम्बुवान	-10.7074
▁2061	-10.7076
▁शेख	-10.7077
▁कलात्मक	-10.7083
▁भालु	-10.7089
भूगोल	-10.7089
▁Co	-10.7093
▁पाउँछ	-10.7093
ina	-10.7096
iz	-10.7099
▁रोटी	-10.7101
▁सभासद्	-10.7104
▁अनुरूप	-10.7107
▁उल्लेख्य	-10.711
पोर्टलहरू	-10.7115
▁निरन्तरता	-10.7131
▁लीग	-10.7133
▁देहरादून	-10.7154
▁बढ्दो	-10.7154
▁कुलदेवता	-10.7154
▁सुन्तला	-10.7154
▁विलियम	-10.7154
▁बताउँछन्	-10.7157
▁बढा	-10.7158
▁ओटा	-10.716
▁विराट	-10.7162
▁विशेषगरी	-10.7162
▁उपनाम	-10.7165
▁शनि	-10.717
▁पांच	-10.7173
▁कृष्णप्रसाद	-10.7173
रचना	-10.7175
▁बालिका	-10.7176
▁भक्तजनहरू	-10.719
▁पाँचौं	-10.7191
▁खबर	-10.7195
सिँह	-10.7219
तापूर्वक	-10.7231
रत्न	-10.7236
Infobox	-10.7238
▁ब्याक्टेरिया	-10.7238
▁भोलिपल्ट	-10.7238
▁सम्वन्ध	-10.7238
▁फोक्सो	-10.7238
▁प्रतिपदा	-10.7238
▁बन्दीपुर	-10.7238
▁line	-10.7239
▁पत्रकारिता	-10.724
▁मीठो	-10.7241
▁टीम	-10.7243
▁युरोपियन	-10.7244
▁सदर	-10.7245
▁आइरहेको	-10.7247
▁जैसी	-10.7248
▁संगीतकार	-10.7254
▁ठहर	-10.7257
▁विद्वान्	-10.7264
मंत्र	-10.7265
ated	-10.7268
▁150	-10.7275
▁इन्डो	-10.7277
▁डिभिजन	-10.7286
▁घडी	-10.7291
▁उहा	-10.7291
min	-10.7292
▁बन्दछ	-10.7303
▁भूगोल	-10.7304
▁सकिन	-10.7305
्टिन	-10.732
▁सर्वश्रेष्ठ	-10.7323
▁पुटिन	-10.7323
▁रङ्गशाला	-10.7324
▁परन्तु	-10.7328
▁2036	-10.733
▁स्टेसन	-10.7331
▁बनाईएको	-10.7334
▁1979	-10.7336
▁जित्ने	-10.7337
विश्वास	-10.7338
▁भुवन	-10.7342
▁चराहरू	-10.7344
शैली	-10.7344
▁प्रकोप	-10.7365
▁उतार	-10.7378
▁एकदिवसीय	-10.7408
▁अड्डा	-10.7408
▁सिपाही	-10.7408
▁प्रशिद्ध	-10.7408
▁क्रोध	-10.7408
▁दृढ	-10.7408
▁सहिद	-10.7409
▁लिइएको	-10.741
▁रणबहादुर	-10.7414
▁गलत	-10.7414
▁ज्यादा	-10.7418
▁तापमान	-10.7418
▁निम्त	-10.7419
▁प्रष्ट	-10.7422
▁अनुहार	-10.7423
▁कार्यलय	-10.7425
▁गन्ध	-10.7448
▁टिप	-10.7453
▁पढाउन	-10.7458
▁प्राथमिकता	-10.7465
ाउँथे	-10.7473
▁चलाउने	-10.7474
▁मोड्युल	-10.7494
▁नायिका	-10.7494
▁अगुवा	-10.7495
▁हुलाक	-10.7497
▁परराष्ट्र	-10.7498
▁बन्धन	-10.7498
▁जेम्स	-10.7499
▁तिनीहरु	-10.7499
▁विवेक	-10.75
▁बाँके	-10.7503
▁1985	-10.7505
ात्मा	-10.7506
▁कौडी	-10.7506
▁तीनवटा	-10.7509
▁ढाल	-10.7512
ran	-10.7516
▁बालुवा	-10.7516
▁all	-10.7518
▁देशहरु	-10.7522
▁2020	-10.7524
▁बिजय	-10.7525
▁नाफा	-10.7526
▁प्रबन्ध	-10.7553
▁शासकहरू	-10.7558
▁अश्व	-10.7562
▁do	-10.7577
ˈ	-10.7581
▁तमिलनाडु	-10.7581
▁इलेक्ट्रोन	-10.7581
▁चतुर्दशी	-10.7581
▁ब्यारिमोर	-10.7581
▁युधिष्ठिर	-10.7581
▁रहिआएको	-10.7581
▁सुँगुर	-10.7581
▁हस्तान्तरण	-10.7581
▁महोत्तरी	-10.7581
▁पिसाब	-10.7581
▁दाउरा	-10.7582
▁इन्डिया	-10.7585
▁रोचक	-10.7585
▁उद्यम	-10.7585
▁सदन	-10.7586
▁राष्ट्रसंघ	-10.7586
▁पुर्ब	-10.7589
▁2066	-10.759
भक्ति	-10.7592
्दथ्यो	-10.7594
▁राजेश	-10.7598
▁छोरो	-10.76
▁दाबी	-10.7601
▁काटेर	-10.7605
▁वचन	-10.7607
▁स्वर्गीय	-10.761
▁कठ	-10.7611
▁इन्टर	-10.7611
्याएर	-10.7618
▁औषध	-10.7641
श्रम	-10.7656
▁बिस्तार	-10.7657
▁provided	-10.7669
▁गुराँस	-10.7669
▁संशोधन	-10.7669
▁रोकथाम	-10.7669
▁1984	-10.7681
▁सौर्य	-10.7688
▁सेतु	-10.7693
V	-10.7693
▁विलास	-10.7697
विधान	-10.7706
▁भेट्न	-10.7711
महल	-10.7716
स्थापन	-10.7757
language	-10.7758
▁Lua	-10.7758
▁डब्ल्यूडब्ल्यूई	-10.7758
▁बिलबोर्ड	-10.7758
▁भिटामिन	-10.7758
▁मातहत	-10.7758
▁पन्ध्र	-10.7758
▁प्रशारण	-10.7758
▁http	-10.7758
▁व्यवस्थापिका	-10.7758
▁उत्साह	-10.7758
▁एडम	-10.7761
▁जनविश्वास	-10.7761
▁ब्रह्माण्ड	-10.7764
▁महावीर	-10.7765
▁आर्जन	-10.7765
क्साइड	-10.7765
▁बाहुल्यता	-10.7766
▁not	-10.7768
ऋ	-10.7774
▁बालबालिकाहरू	-10.7777
क्रान्ति	-10.7778
▁खाली	-10.7791
▁ठु	-10.7792
▁सर्ब	-10.7797
▁नियुक्ति	-10.7802
▁Bo	-10.7808
▁दन्त	-10.7823
▁भ्रम	-10.784
पल्ट	-10.7841
▁पट्टी	-10.7846
▁value	-10.7847
▁गोसाइँकुण्ड	-10.7847
▁भियतनाम	-10.7847
▁सूक्ष्म	-10.7847
▁गन्तव्य	-10.7847
▁अनुभूति	-10.7847
▁संयोजन	-10.7847
▁नाट्य	-10.7847
▁न्यूनतम	-10.7848
▁दाँत	-10.7849
▁चारैतिर	-10.785
▁तीर्थस्थल	-10.7851
fer	-10.7861
▁भव्य	-10.7875
फ्रि	-10.7876
▁सकेनन्	-10.7878
▁दुर्गम	-10.7883
संगै	-10.7885
▁थाह	-10.7886
▁बीउ	-10.7891
▁जिवन	-10.7895
▁रिपब्लिक	-10.7901
▁चल्ने	-10.7904
▁छाडे	-10.7907
उँछ	-10.7912
▁भिन्नता	-10.792
▁स्वीकृत	-10.7921
खुवा	-10.793
▁इमिरेट्स	-10.7937
▁धुलिखेल	-10.7937
▁मुख्तियार	-10.7937
▁लामपुछ्रे	-10.7937
▁विषयवस्तु	-10.7937
▁इन्डियन	-10.7937
▁रूपैयाँ	-10.7937
▁गोकर्ण	-10.7937
▁कत्युर	-10.7937
▁दबाब	-10.7937
ोन्मुख	-10.7937
▁मोतिराम	-10.7939
▁2022	-10.7945
▁2055	-10.7945
▁बायाँ	-10.7949
▁विकाश	-10.795
▁बिताउन	-10.7953
▁पञ्चमी	-10.7962
द्धार	-10.7973
▁बुझाउन	-10.7982
▁dis	-10.7986
्याए	-10.8018
{	-10.8028
▁परामर्श	-10.8028
▁तृतीय	-10.8028
▁निष्कर्ष	-10.8028
▁मूत्रमार्गको	-10.8028
▁हस्तक्षेप	-10.8028
▁हिटलर	-10.8028
▁मधुमेह	-10.8028
▁शरणार्थी	-10.8028
▁नेवाः	-10.8028
▁पब्लिक	-10.8028
▁बर्दिया	-10.8028
▁भएतापनि	-10.8028
▁घनत्व	-10.8028
▁शारदा	-10.8028
▁गोविन्द	-10.8028
▁प्रसङ्ग	-10.8029
▁बखत	-10.8029
▁पदयात्रा	-10.8032
▁उत्पति	-10.8033
▁2030	-10.8043
हूँ	-10.805
▁राख्छ	-10.805
▁गगन	-10.8053
▁प्रसंग	-10.8053
▁भेष	-10.8054
ऐ	-10.8055
▁दशमी	-10.8062
▁ग्रीक	-10.807
मेरो	-10.8087
▁जनाउने	-10.8099
▁समाप्ति	-10.8099
▁श्याम	-10.8106
▁गरीएको	-10.8111
▁मोति	-10.8116
▁पेशेवर	-10.812
▁भीष्म	-10.812
▁गनोरिया	-10.812
▁नकारात्मक	-10.812
▁पूर्वाधार	-10.812
▁द्रां	-10.812
▁ढुङ्गे	-10.812
▁but	-10.8121
▁अन्डर	-10.8122
▁पढ्ने	-10.8125
▁मौजा	-10.8133
▁1972	-10.8138
▁दानव	-10.8141
▁ल्याई	-10.8153
ाध्याय	-10.8154
चक्र	-10.8167
▁युरो	-10.8187
पश्चिमाञ्चल	-10.8188
लुङ्ग	-10.8202
▁लामिछाने	-10.8212
▁लेखापरीक्षण	-10.8212
▁लगत्तै	-10.8212
▁जङ्गबहादुर	-10.8212
▁नराम्रो	-10.8212
▁श्रवण	-10.8212
▁निवारण	-10.8212
▁अदुवा	-10.8213
▁दाजुभाइ	-10.8213
▁अनलाईन	-10.8214
▁खानेपानी	-10.8215
▁has	-10.8216
▁धागो	-10.8217
ार्जुन	-10.8218
▁2032	-10.8219
▁छुट्टि	-10.8228
हुँदै	-10.8238
▁नाइट	-10.8238
▁दिन्छन्	-10.8245
▁मिश्रण	-10.8255
sa	-10.8264
▁बजाउन	-10.8265
बापत	-10.8292
▁देशभर	-10.8293
▁ब्रज	-10.8301
▁एन्टिबायोटिक	-10.8306
▁पाठ्यक्रम	-10.8306
▁पाथीभरा	-10.8306
▁माल्दिभ्स	-10.8306
▁longitude	-10.8306
▁तेश्रो	-10.8306
▁कृषक	-10.8306
▁गाह्रो	-10.8306
▁आफन्त	-10.8306
▁द्रोण	-10.8306
▁लन्डन	-10.8306
▁विन्दु	-10.8306
▁ब्यबस्था	-10.8306
▁जनमत	-10.8307
▁भीड	-10.8309
▁चीज	-10.8309
▁शनिबार	-10.831
▁चलिरहेको	-10.831
▁स्वच्छ	-10.8315
▁दोहोरो	-10.8317
▁शू	-10.8321
▁पठाउन	-10.8331
▁पसल	-10.8344
▁see	-10.8346
▁थलो	-10.835
▁रोजगार	-10.8351
▁लोभ	-10.8351
und	-10.8353
▁कुनैपनि	-10.8353
▁जेठो	-10.8356
रहन्छ	-10.8359
▁छोडे	-10.8362
▁तोप	-10.8392
ात्म	-10.8392
▁आह्वान	-10.84
▁कहिलेकाहीँ	-10.84
▁गोर्कीद्वारा	-10.84
▁सिंचाई	-10.84
▁शङ्कर	-10.84
▁टर्की	-10.84
▁शर्त	-10.8401
▁अमरसिंह	-10.8406
▁पुग्दा	-10.8411
▁महामन्त्री	-10.8413
▁झ्याल	-10.8416
▁भञ्ज्याङ	-10.8432
▁बुझे	-10.8433
▁गरिदै	-10.8436
▁विभेद	-10.8437
घोष	-10.8446
▁ट्रेड	-10.8452
▁मुल्य	-10.8459
▁शोभा	-10.8464
▁बच्न	-10.8471
▁जिउ	-10.8477
▁संज्ञा	-10.8485
▁किन्ड्रेक	-10.8495
▁कौटिलीय	-10.8495
▁सार्वभौम	-10.8495
▁419:	-10.8495
▁हङकङ	-10.8495
▁बट्टाई	-10.8495
▁पुतली	-10.8496
▁डिकद्वारा	-10.8496
▁मञ्जु	-10.8496
▁अलावा	-10.8497
▁विधिपूर्वक	-10.8498
▁सिमसार	-10.85
▁1981	-10.8508
▁सुदुर	-10.851
▁देउडा	-10.8513
▁ईसाई	-10.8523
K	-10.8527
▁विजयपुर	-10.8544
▁हेरेर	-10.8556
▁कथाकार	-10.856
▁खेति	-10.8563
बुद्ध	-10.8574
▁which	-10.8591
▁संखुवासभा	-10.8591
▁ध्वस्त	-10.8591
▁नतिजा	-10.8592
▁edit	-10.8592
▁सिद्धिचरण	-10.8592
▁द्वरा	-10.8592
▁tag	-10.8593
▁ग्राहक	-10.8596
▁घेरिएको	-10.8599
▁क्यानडा	-10.8599
▁राखिएका	-10.8599
▁खुवाउन	-10.8601
िरहेछ	-10.8602
▁थ्री	-10.8603
▁पुर्या	-10.8603
▁कृपा	-10.8612
▁आठौं	-10.8613
▁हेतु	-10.8613
▁उन्नति	-10.8618
▁भएपछी	-10.862
▁बस्दा	-10.8632
▁पातलो	-10.8633
urge	-10.8645
▁भाडा	-10.8651
▁च्याम्पियन	-10.8685
जन्म	-10.8686
▁प्राध्यापक	-10.8688
▁प्रतिष्ठित	-10.8688
▁कालान्तरमा	-10.8689
▁आवद्ध	-10.8689
लाग्दो	-10.8689
▁तनाव	-10.8689
▁सचिवालय	-10.8691
ुपर्‍यो	-10.8691
▁भत्क	-10.8692
▁2057	-10.8697
▁2042	-10.8697
▁शासित	-10.87
▁Ca	-10.8705
▁डेढ	-10.8707
निष्ठ	-10.8708
▁राष्ट्रवादी	-10.8738
▁पुकार	-10.8751
▁पेसा	-10.8752
▁आउछ	-10.8785
▁काल्पनिक	-10.8786
▁पत्रपत्रिका	-10.8786
▁पर्यावरण	-10.8786
▁भ्रष्टाचार	-10.8786
▁बृद्धि	-10.8787
▁पूँजी	-10.8787
▁मानन्धर	-10.8787
▁भैसकेको	-10.8787
▁घन्टा	-10.8787
▁कहीं	-10.8787
▁संहिता	-10.8787
▁महोत्सव	-10.8788
▁भइसकेका	-10.8789
ब्द	-10.8791
िरहन्छ	-10.8794
▁लक्ष्मीप्रसाद	-10.8794
▁बनाइएका	-10.8795
▁पुगिन्छ	-10.8796
▁लगाइएको	-10.8798
▁1962	-10.8803
▁मिश्रित	-10.8806
▁संस्थागत	-10.8807
प्रधान	-10.8833
▁राख्दछ	-10.884
▁मान्दै	-10.8848
▁वह	-10.8855
▁गेट	-10.8856
▁शिवजी	-10.8863
▁पोख	-10.8864
▁प्रशासक	-10.8879
▁Nepal	-10.8882
▁COPD	-10.8886
▁फैसला	-10.8886
▁भारद्वाज	-10.8886
▁सद्भाव	-10.8886
▁तेलुगु	-10.8886
▁पुरातत्व	-10.8886
▁द्रुत	-10.8886
▁सांसद	-10.8886
▁लोकविश्वास	-10.8888
▁क्रियाशील	-10.8889
ba	-10.889
▁जनाउँदछ	-10.889
▁कपूर	-10.8892
▁शरद	-10.8893
▁अपनाए	-10.8896
▁मुहान	-10.8907
▁टुक्र	-10.8933
िँदै	-10.8935
▁जवान	-10.8942
▁चाहन्छ	-10.8951
स्थापित	-10.8961
▁शैल	-10.8961
▁खाम	-10.8975
▁Re	-10.8976
▁द्वन्द्व	-10.8986
▁शव्द	-10.8986
▁पृथक	-10.8986
▁समायोजन	-10.8986
▁कमाण्डर	-10.8986
▁अवरोध	-10.8986
▁अनलाइन	-10.8986
ight	-10.8986
▁फारसी	-10.8986
▁1949	-10.8986
}}	-10.8986
▁खनिज	-10.8986
▁शकिरा	-10.8986
▁कार्तिकेय	-10.8988
▁प्रभावशाली	-10.8988
▁देहाय	-10.8989
▁सम्बद्ध	-10.899
▁नवीन	-10.899
▁ब्रान्ड	-10.8991
▁2033	-10.8994
▁कुमाउँ	-10.8994
▁गराइएको	-10.8998
▁उपग्रह	-10.9003
▁निर्देशित	-10.9005
▁श्रमिक	-10.9006
▁स्टोर	-10.9011
▁लिच्छविकाल	-10.9014
▁धनुष	-10.9025
▁De	-10.9028
ica	-10.903
▁भूमध्य	-10.9057
साथै	-10.9079
▁पुग्दछ	-10.9085
▁साँस्कृतिक	-10.9087
▁फ्रेन्च	-10.9087
▁उदेश्य	-10.9087
▁घिउ	-10.9087
▁अकबर	-10.9087
▁जयन्ती	-10.9091
▁हर्ष	-10.9095
▁गाँस	-10.9097
form	-10.9101
▁जनाएका	-10.9119
▁गुमाए	-10.912
▁चित्रकार	-10.9127
▁गर्छिन्	-10.9128
▁मिलेको	-10.917
▁आउँ	-10.9187
▁also	-10.9189
▁अनौठो	-10.9189
▁किम्बदन्ती	-10.9189
▁फेसबुक	-10.9189
▁सताब्दी	-10.9189
▁स्वतंत्र	-10.9189
▁थाइल्याण्ड	-10.9189
▁ब्ल्याक	-10.9189
▁भैरहवा	-10.9189
▁धरोहर	-10.9189
▁अनियमित	-10.9189
▁संक्रमित	-10.9189
▁name	-10.9189
▁सुगन्ध	-10.9189
▁ख्याति	-10.9189
▁एकिकृत	-10.9189
▁पाठशाला	-10.919
ite	-10.919
▁नारद	-10.919
▁जातजाति	-10.919
▁सुख्खा	-10.919
▁गर्भवती	-10.9191
▁सिस्टम	-10.9191
▁सन्तुष्ट	-10.9191
▁रमेश	-10.9192
▁खत्री	-10.9217
▁धुलो	-10.9221
स्वास्थ्य	-10.9227
▁वर्षअघि	-10.9229
▁ताजा	-10.9243
▁इराक	-10.9265
▁गोठ	-10.9268
▁अस्थायी	-10.9292
▁आणविक	-10.9292
▁उत्परिवर्तन	-10.9292
▁टुर्नामेन्ट	-10.9292
▁पूणिर्मा	-10.9292
▁पृथिवी	-10.9292
▁मनोवैज्ञानिक	-10.9292
▁स्वायत्त	-10.9292
▁पुच्छर	-10.9292
▁मनोनित	-10.9292
▁कन्काई	-10.9292
▁रिजाल	-10.9292
▁मन्त्रीमण्डल	-10.9295
▁बाँदर	-10.9296
▁बैङ्क	-10.9297
▁श्रेय	-10.93
▁कालीकोट	-10.9303
▁2025	-10.9304
▁माइकल	-10.931
▁मानिएका	-10.9312
▁बढ्यो	-10.9315
▁सक्दछन्	-10.9321
ार्इ	-10.933
स्वरूप	-10.9338
▁संसारभर	-10.9339
मित्र	-10.9345
फिल्ड	-10.9352
▁तिर्थ	-10.9353
▁हरिद्वार	-10.936
▁समाजवाद	-10.9382
▁इङ्ल्यान्ड	-10.9396
▁ठेगाना	-10.9396
▁बृहस्पति	-10.9396
▁विक्रमादित्य	-10.9396
▁किसिमले	-10.9396
▁नारायणहिटी	-10.9396
▁चौडाई	-10.9396
▁निक्कै	-10.9396
▁सचेत	-10.9396
▁हिमाचल	-10.9396
▁आपसी	-10.9396
▁अचेल	-10.9397
▁53%	-10.9398
▁सामवेद	-10.9399
▁लासलाई	-10.94
▁विद्यापति	-10.94
▁धाबी	-10.9401
▁जागरण	-10.9401
▁पर्यटकिय	-10.9405
▁परापूर्व	-10.9408
▁2021	-10.9408
▁सन्तति	-10.9412
▁1961	-10.9412
▁राजस्व	-10.9417
▁बसन्त	-10.9418
▁अफिस	-10.9427
▁जुद्ध	-10.9427
गुप्त	-10.9443
▁वृष	-10.945
▁स्वयम्	-10.9471
▁पुष	-10.9475
÷	-10.9501
▁जनघनत्व	-10.9501
▁पहेँलो	-10.9501
▁डडेल्धुरा	-10.9501
▁हेर्नुहोस्	-10.9501
▁तारिख	-10.9501
▁आफ्नु	-10.9501
রা	-10.9501
▁तिम्रा	-10.9501
▁कान्छी	-10.9502
▁पोस्ट	-10.9502
▁उत्खनन	-10.9502
▁page	-10.9502
▁औजार	-10.9503
▁आयात	-10.9504
▁47%	-10.9505
▁प्रवेशद्वार	-10.9506
▁महिनावारी	-10.9508
▁उभिए	-10.9509
▁ब्रह्माजी	-10.951
▁pre	-10.951
▁2059	-10.9511
▁sp	-10.9516
▁पाईने	-10.9516
▁ढोल	-10.9516
▁त्यसपछी	-10.9523
▁मोटो	-10.9524
▁चल्यो	-10.9528
फ्याक्स	-10.9528
▁भनियो	-10.9539
भूषण	-10.9546
▁सावित	-10.9581
▁{\	-10.9607
▁किंवदन्ती	-10.9607
▁नेपोलियन	-10.9607
▁परिवर्तित	-10.9607
▁सम्पुर्ण	-10.9607
▁पहिरन	-10.9607
▁सप्तकोशी	-10.9608
▁अहमद	-10.9608
▁श्राप	-10.9608
▁विशेषतया	-10.9608
▁अवधी	-10.9608
▁अध्यात्म	-10.9608
▁सुनकोशी	-10.9608
▁त्यसकारण	-10.9608
तृप्त	-10.961
▁ट्रफी	-10.9611
▁च्याम्पियन्स	-10.9611
ाउछन्	-10.9615
▁1978	-10.962
▁1976	-10.9624
▁बाढी	-10.9627
▁मङ्गल	-10.9629
▁1959	-10.9629
फोर्ड	-10.963
रिपब्लिक	-10.965
भैरव	-10.9651
शुल्क	-10.9655
▁इन्जिनियर	-10.9655
▁बयान	-10.9667
▁उचाल	-10.9675
व्रत	-10.9704
▁Ra	-10.9709
सम्बन्ध	-10.9711
▁सुदृढ	-10.9715
▁फाउन्डेसन	-10.9715
▁सुल्तान	-10.9715
▁सुगौली	-10.9715
▁आषाढ	-10.9715
▁जरुरी	-10.9715
▁चौतारा	-10.9715
▁म्यानमार	-10.9716
▁फ्लोर	-10.9717
▁मौर्य	-10.9718
▁चढाए	-10.9719
▁बालकृष्ण	-10.9719
▁शिल्ड	-10.972
▁क्युबा	-10.9722
▁घरपरिवार	-10.9724
▁अनुरुप	-10.9725
▁खुशी	-10.9727
▁फोरम	-10.9728
▁रामचन्द्र	-10.9733
▁काट्न	-10.9733
▁स्वीकृति	-10.9734
▁रेन्ज	-10.9734
▁बलराम	-10.9738
▁तुलना	-10.9739
▁सामन्त	-10.9746
अधिकार	-10.9759
▁प्रलय	-10.9763
9%	-10.9764
▁दिलाउन	-10.9769
इसकेको	-10.9785
द्घ	-10.9811
॰	-10.9824
▁अपभ्रंश	-10.9824
▁आइपुगे	-10.9824
▁एकेडेमी	-10.9824
▁मर्स्याङ्दी	-10.9824
▁समालोचक	-10.9824
▁सर्वोत्कृष्ट	-10.9824
▁सैद्धान्तिक	-10.9824
▁2049	-10.9824
▁तुरुन्त	-10.9824
▁विघटन	-10.9824
▁स्थानान्तरण	-10.9824
▁उपासना	-10.9824
▁नेल्सन	-10.9824
▁उर्वर	-10.9824
▁India	-10.9824
▁कन्नड	-10.9824
▁महेश	-10.9825
▁गणराज्य	-10.9825
▁वरदान	-10.9827
▁उम्र	-10.9834
▁जोडिएका	-10.9838
▁गणेशमान	-10.9844
▁भेडा	-10.9845
भएकी	-10.9855
▁खेल्छन्	-10.9856
▁भानु	-10.9875
लोचन	-10.9924
▁group	-10.9934
▁उपभोक्ता	-10.9934
▁तान्त्रिक	-10.9934
▁त्रुटी	-10.9934
▁बेल्जियम	-10.9934
▁शल्यक्रिया	-10.9934
▁इजिप्ट	-10.9934
▁पेट्रोल	-10.9934
▁रूपान्तरण	-10.9934
▁विन्डोज	-10.9934
▁जम्मू	-10.9934
▁ताइवान	-10.9934
▁तस्वीर	-10.9934
▁अवश्य	-10.9934
▁संगठन	-10.9934
▁मत्स्य	-10.9934
▁अणु	-10.9934
▁मार्क्स	-10.9937
▁गरिसकेको	-10.9938
▁भाँडा	-10.9942
▁संगठित	-10.9943
▁उद्धार	-10.9945
▁उपप्रमुख	-10.9945
▁लगाइन्छ	-10.9948
▁1983	-10.9949
▁गोकुल	-10.9953
▁हमाल	-10.9956
अलग	-10.9981
▁सम्हाल	-11.0043
▁कालसर्प	-11.0045
▁छोराछोरी	-11.0045
▁धारावाहिक	-11.0045
▁पानासोनिक	-11.0045
▁प्रशंसा	-11.0045
▁बारम्बार	-11.0045
▁गायत्री	-11.0045
▁एप्पल	-11.0045
▁कम्तीमा	-11.0045
▁परमात्मा	-11.0045
▁वासस्थान	-11.0045
▁सहकार्य	-11.0047
▁विषेश	-11.0049
▁महासंघ	-11.0049
▁स्पेस	-11.0052
▁बोलाएर	-11.0067
▁गद्य	-11.0079
▁पिटर	-11.0079
▁डबल	-11.0087
▁गोबर	-11.0098
▁रेशम	-11.0113
▁बिग्र	-11.013
▁Ba	-11.0133
ata	-11.0146
▁टुप्पो	-11.0157
▁फराकिलो	-11.0157
▁म्यानचेस्टर	-11.0157
▁शृंखला	-11.0157
▁क्रांति	-11.0157
▁प्रावधान	-11.0157
▁उर्दू	-11.0157
▁बिशेष	-11.0157
▁सर्वेक्षण	-11.0157
▁पच्यु	-11.0157
▁कौशल	-11.0157
▁खरानी	-11.0158
▁श्रद्धालु	-11.0161
▁2029	-11.0165
▁गुँड	-11.0166
▁प्रयोगशाला	-11.0173
▁कम्पनि	-11.0176
▁दिइने	-11.0178
डिभिजन	-11.0206
खेलकुद	-11.0206
▁गृहस्थ	-11.0222
▁चिनिए	-11.023
▁निस्किए	-11.0237
▁एतिहासिक	-11.0271
▁कालीगण्डकी	-11.0271
▁दामोदर	-11.0271
▁पेनाल्टी	-11.0271
▁वैवाहिक	-11.0271
▁रोलिन्स	-11.0271
▁अनुकूल	-11.0271
▁विषालु	-11.0271
▁उत्तराधिकारी	-11.0271
wiki	-11.0271
▁समैजी	-11.0271
▁ढंगले	-11.0271
▁अन्तरराष्ट्रिय	-11.0272
▁were	-11.0274
▁भेकमा	-11.0274
▁बाग्लुङ	-11.0275
▁सिद्धार्थ	-11.0275
▁गोरखापत्र	-11.028
▁जनशक्ति	-11.0282
▁2067	-11.0283
▁भनिए	-11.0283
▁1952	-11.0284
▁शान्तिपूर्ण	-11.0284
▁संवत	-11.0285
▁संकाय	-11.0296
▁go	-11.0308
▁चल्छ	-11.0368
ोत्सव	-11.0384
্	-11.0386
▁Wikipedia	-11.0386
▁इन्टरनेसनल	-11.0386
▁उपराष्ट्रपति	-11.0386
▁निषेध	-11.0386
▁ब्याट्सम्यान	-11.0386
▁मोहम्मद	-11.0386
▁यशोदा	-11.0386
▁प्रवर्तक	-11.0386
▁विपक्षी	-11.0386
▁प्रयाग	-11.0386
धरातल	-11.0386
▁शुरुआत	-11.0386
▁वायुमण्डल	-11.0388
▁चाहन्थे	-11.0388
▁ल्याइएको	-11.0388
▁बाँच्न	-11.0389
▁आइफोन	-11.039
पन्थी	-11.039
▁2026	-11.0396
▁समकालीन	-11.0397
▁स्विकार	-11.04
▁सरदर	-11.0403
▁1968	-11.0403
विशेष	-11.0438
▁खरीद	-11.0438
▁बराह	-11.0447
▁जिम्मेवार	-11.0453
ang	-11.0475
▁राख्दै	-11.0496
▁स्ट्राइकर	-11.0502
▁मनोनयन	-11.0502
▁आंशिक	-11.0502
▁शसस्त्र	-11.0502
▁परिचालन	-11.0502
▁दृष्य	-11.0502
▁विवेचन	-11.0502
▁पाण्डु	-11.0502
▁आँधी	-11.0502
▁अभिनित	-11.0503
▁सङ्क्रान्ति	-11.0503
▁पचास	-11.0503
▁टिकट	-11.0509
▁काखमा	-11.051
▁रामकृष्ण	-11.051
तिहाई	-11.0512
▁समाधि	-11.0512
▁भयेको	-11.0513
▁भन्यो	-11.0513
▁कुसुम	-11.0529
सचिव	-11.0552
W	-11.0555
शंकर	-11.0556
out	-11.057
▁नजान	-11.0588
▁परिमाण	-11.0617
displaystyle	-11.062
▁आश्चर्य	-11.062
▁डडेलधुरा	-11.062
▁प्रकृया	-11.062
▁बन्दरगाह	-11.062
(	-11.062
▁वासिन्दा	-11.062
▁बाख्रा	-11.062
▁ग्रामिण	-11.062
............	-11.062
▁औषत	-11.062
फाल्गुण	-11.062
▁हत्याकाण्ड	-11.062
▁माल्टा	-11.0621
▁चन्द्रगुप्त	-11.0621
▁मलद्वार	-11.0622
कालागि	-11.0623
▁प्रजापति	-11.0623
▁मार्क्सवाद	-11.0627
▁2053	-11.063
▁हराउँदै	-11.0633
▁हरिहर	-11.0635
सरकार	-11.0652
समूह	-11.0674
▁अर्घ	-11.0682
▁दिँदै	-11.0691
▁{{	-11.0739
▁टिप्पणी	-11.0739
▁संक्षिप्त	-11.0739
▁संबिधान	-11.0739
▁time	-11.0739
▁किर्तिमान	-11.0739
▁दाहिने	-11.0739
▁कैलाश	-11.0739
▁त्रिपुरा	-11.0739
▁खप्तड	-11.0739
▁प्रसस्त	-11.0739
▁यिनिहरू	-11.074
▁प्रोग्राम	-11.0741
▁अग्रणी	-11.0745
▁सिक्का	-11.0746
▁मूलतः	-11.0753
▁सुरुङ्गा	-11.0754
▁परमेश्वर	-11.0756
▁जन्तु	-11.0758
▁खान्छ	-11.078
U	-11.0795
▁नभइ	-11.08
▁training	-11.0859
▁डिजिटल	-11.0859
▁बोगटान	-11.0859
▁यहूदी	-11.0859
▁सिलसिलामा	-11.0859
▁भर्खरै	-11.0859
▁स्मिथ	-11.0859
▁फिलिपिन्स	-11.0859
▁मथुरा	-11.0859
▁part	-11.0859
▁प्रतिपादन	-11.0859
▁गद्दी	-11.0859
▁परस्पर	-11.0859
▁नश्ल	-11.086
▁साबिक	-11.086
▁मकालु	-11.0861
बित्तिकै	-11.0861
▁छरिएर	-11.0861
▁अर्याल	-11.0862
▁अठार	-11.0863
▁धमारी	-11.0864
▁बसन्तपुर	-11.0866
▁2037	-11.0868
▁दर्शनशास्त्र	-11.0876
ाध्यक्ष	-11.0878
निर्माण	-11.0917
आफ्ना	-11.0917
8%	-11.093
▁उत्पादक	-11.0951
▁अर्जेन्टिना	-11.0981
▁न्यौपाने	-11.0981
▁पराजुली	-11.0981
▁मुहम्मद	-11.0981
▁स्टेडियम	-11.0981
▁भैंसी	-11.0981
▁निभाए	-11.0983
▁शोषण	-11.0985
▁युवती	-11.0987
▁सहारा	-11.0987
▁अबस्था	-11.0988
▁कलिलो	-11.0989
▁विचारधारा	-11.0989
▁आरोह	-11.0991
▁निकास	-11.0994
7%	-11.1004
मंडल	-11.1006
▁1,2	-11.1012
▁निशान	-11.1021
▁धीर	-11.1041
बाहिर	-11.1048
▁उग्र	-11.1049
▁चेतन	-11.1068
▁अल्पसंख्यक	-11.1104
▁आईपीएल	-11.1104
▁गभर्नर	-11.1104
▁पाश्चात्य	-11.1104
▁बेग्लै	-11.1104
phys	-11.1105
▁अस्वीकार	-11.1105
▁यात्रु	-11.1105
▁गुलियो	-11.1105
▁चितुवा	-11.1105
▁इटली	-11.1105
▁बेलुका	-11.1105
▁सुन्दरीजल	-11.1106
▁लाग्दैन	-11.1107
▁फुटसल	-11.1108
able	-11.1109
▁2024	-11.1115
▁भाषण	-11.1119
▁केशर	-11.1141
नाशक	-11.1168
▁Wikimedia	-11.1229
▁such	-11.1229
▁निर्णायक	-11.1229
▁बहुप्रसिद्ध	-11.1229
▁सन्तुलन	-11.123
▁भेदभाव	-11.123
▁team	-11.123
▁निश्चय	-11.123
▁बकुल्ला	-11.123
▁गोठाला	-11.123
▁बाइबल	-11.123
▁मतदाता	-11.123
▁ठाडो	-11.123
▁थापाथली	-11.123
▁साढे	-11.123
▁स्तनधारी	-11.1231
▁मन्त्रीपरिषद	-11.1231
▁2034	-11.124
▁2035	-11.1242
▁क्लास	-11.1252
▁लायक	-11.1252
▁राजपुत	-11.1263
▁झलक	-11.1281
▁अपनाउन	-11.1292
गर्भ	-11.13
▁चुनिए	-11.1328
▁दिलाए	-11.1347
▁अथर्ववेद	-11.1356
▁इन्डोनेसिया	-11.1356
▁युनिभर्सिटी	-11.1356
▁सापकोटा	-11.1356
▁अलङ्कार	-11.1356
▁कनकाई	-11.1356
▁त्यतिखेर	-11.1356
▁आश्रय	-11.1356
▁सामुहिक	-11.1356
▁सम्शेर	-11.1356
▁मराठी	-11.1356
▁कयौं	-11.1356
▁कौरव	-11.1356
ign	-11.1357
▁स्वयम्भू	-11.1357
▁आखिर	-11.1358
▁उत्थान	-11.1358
▁त्रिशुल	-11.1358
▁नपुग	-11.1361
▁विकिरण	-11.1362
▁बस्ति	-11.1363
▁झण्डा	-11.1367
बिन्दु	-11.142
▁इलाहाबाद	-11.1484
▁गठबन्धन	-11.1484
▁त्रैमासिक	-11.1484
▁बैज्ञानिक	-11.1484
▁म्याक्सिम	-11.1484
▁स्वीडेन	-11.1484
▁ग्रीष्म	-11.1484
▁बिष्णु	-11.1484
▁सत्याग्रह	-11.1484
▁जोसेफ	-11.1484
▁अंगिरा	-11.1484
▁अफ्रीका	-11.1485
▁गइरहेको	-11.1485
▁गल्फ	-11.1485
▁निमार्ण	-11.1485
▁तानसेन	-11.1485
▁टेलर	-11.1486
▁पराजय	-11.1487
▁व्याप्त	-11.1487
▁इकाइ	-11.1488
▁सङ्कट	-11.1489
▁more	-11.149
एस्सी	-11.1493
▁पनौती	-11.1614
emplate	-11.1614
▁translate	-11.1614
▁उपलव्ध	-11.1614
▁ज्येष्ठ	-11.1614
▁प्रवर्द्धन	-11.1614
▁फ्रिक्वेन्सी	-11.1614
▁मरुभूमि	-11.1614
▁सेकेन्ड	-11.1614
▁सङ्कलन	-11.1614
▁वैश्य	-11.1614
▁सन्तोष	-11.1614
▁ट्याग	-11.1614
▁मनसून	-11.1614
▁मतलब	-11.1615
▁प्वाल	-11.1615
▁उँट	-11.1615
▁दीर्घकालीन	-11.1616
▁ताप्लेजुङ्ग	-11.1616
▁फाल्गुनन्द	-11.1616
▁अध्यक्षतामा	-11.1619
▁Nepali	-11.1619
▁भित्ता	-11.162
▁बोल्छ	-11.1621
▁विकट	-11.1621
▁आजाद	-11.1623
▁म्याग	-11.1629
▁चल्दछ	-11.1635
दूर	-11.1643
पृथ्वी	-11.1682
ology	-11.1746
▁This	-11.1746
▁त्यत्तिकै	-11.1746
▁दुर्योधन	-11.1746
▁भिमसेन	-11.1746
▁वाजपेयी	-11.1746
▁वाराणसी	-11.1746
▁षडानन्द	-11.1746
▁वसोवास	-11.1746
▁साबित्रा	-11.1746
▁विरूद्व	-11.1746
▁कार्यदिशा	-11.1746
▁परिणामस्वरूप	-11.1746
▁रामेश्वरम	-11.1749
▁---	-11.1751
▁मसला	-11.1751
▁अतिथि	-11.1753
▁निराश	-11.179
प्रधानमन्त्री	-11.1816
▁बुझाउँछ	-11.1819
▁उपमहाद्वीप	-11.1879
▁एसएलसी	-11.1879
▁कश्यप	-11.1879
▁चाँगुनारायण	-11.1879
▁द्रौपदी	-11.1879
▁ब्राम्हण	-11.1879
▁रैथाने	-11.1879
▁सांकेतिक	-11.1879
▁स्टुडियो	-11.1879
▁छेउछाउ	-11.1879
▁धुमधाम	-11.1879
▁लडाइँ	-11.1879
▁निस्कासन	-11.1879
▁स्पर्श	-11.1879
▁समीक्षा	-11.1879
▁सुचना	-11.188
▁कानून	-11.1882
▁निस्कन्छ	-11.1883
▁खरेल	-11.1886
▁गर्थ्यो	-11.1888
▁बटुल	-11.1901
▁छानिए	-11.1903
व्यवस्था	-11.1949
सामग्रीहरू	-11.195
▁गुल्म	-11.1984
▁नपाए	-11.1991
▁जोगाउन	-11.2001
Q	-11.2014
▁अन्वेषण	-11.2014
▁आंबेडकर	-11.2014
▁चुचुरो	-11.2014
▁नमूना	-11.2014
▁यद्यपी	-11.2014
▁षड्यन्त्र	-11.2014
▁खाल्डो	-11.2014
▁स्नायु	-11.2014
▁उप्रेती	-11.2014
▁खानेकुरा	-11.2014
▁महशुस	-11.2014
▁आवेदन	-11.2015
▁पुनर्निर्माण	-11.2015
▁जोर्नी	-11.2015
▁बिक्रि	-11.2015
▁समापन	-11.2017
▁परिश्रम	-11.2018
▁अमृतसर	-11.2021
▁गराउँछ	-11.2078
संस्कृति	-11.2087
च्युत	-11.211
\	-11.2151
▁प्राधिकरण	-11.2151
▁खुर्सानी	-11.2151
▁चाणक्य	-11.2151
▁महत्वपुर्ण	-11.2151
▁महाभूकम्प	-11.2151
▁कम्तिमा	-11.2151
▁चिसापानी	-11.2151
▁नियन्त्रित	-11.2151
▁सिंगापुर	-11.2151
▁व्यङ्ग्य	-11.2151
▁डाँठ	-11.2151
▁श्वेत	-11.2151
▁स्तुति	-11.2151
▁You	-11.2152
▁ग्लोब	-11.2152
▁चौबीस	-11.2153
▁थकाली	-11.2153
▁तथ्यांक	-11.2153
▁पंक्ति	-11.2153
▁चियाबारी	-11.2154
▁sub	-11.2155
▁बासस्थान	-11.2157
▁लखन	-11.2183
▁व्यवसायीक	-11.2206
ज्योति	-11.2226
रायण	-11.2256
▁कौटिल्य	-11.229
▁धृतराष्ट्र	-11.229
▁मनमोहक	-11.229
▁युनिकोड	-11.229
▁रोनाल्डिन्हो	-11.229
▁वृन्दावन	-11.229
▁वैष्णव	-11.229
▁हैदराबाद	-11.229
▁नोक्सान	-11.229
▁बिभाजन	-11.229
box	-11.229
▁बसाइँ	-11.229
▁अर्चना	-11.229
▁बिरालो	-11.2291
▁जिरुले	-11.2291
▁वज्र	-11.2291
▁your	-11.2294
▁पराक्रम	-11.2294
▁पीपल	-11.2303
यस्तै	-11.2307
स्मृति	-11.2367
▁आशीर्वाद	-11.2431
▁जवाहरलाल	-11.2431
▁डेनमार्क	-11.2431
▁नवदुर्गा	-11.2431
▁नेदरल्यान्ड	-11.2431
▁प्राध्यापन	-11.2431
▁वुलेटिन	-11.2431
▁शम्शेर	-11.2431
▁सेमिफाइनल	-11.2431
▁अचानक	-11.2431
▁शिवरात्रि	-11.2431
▁some	-11.2431
▁नरिवल	-11.2431
▁सामयिक	-11.2431
▁महर्जन	-11.2431
▁लडाकु	-11.2431
▁रवीन्द्र	-11.2431
▁तेह्र	-11.2431
▁प्रचुर	-11.2431
▁स्वप्न	-11.2432
▁नर्वे	-11.2432
▁पुष्पलाल	-11.2433
▁पाइँदैन	-11.2433
▁पञ्चाङ्ग	-11.2437
▁स्नेह	-11.2452
▁बन्दुक	-11.2522
▁Con	-11.2534
ाक्षर	-11.2565
་	-11.2574
▁हाइस्कूल	-11.2574
▁निःशुल्क	-11.2574
▁हेटौडा	-11.2574
▁त्रिशूल	-11.2574
▁वैदेशिक	-11.2574
▁साम्यवादी	-11.2574
▁आत्रेय	-11.2574
▁मौखिक	-11.2574
▁खुकुरी	-11.2574
▁वासुदेव	-11.2574
▁झगडा	-11.2574
▁बैँक	-11.2574
▁मष्टो	-11.2574
▁कच्ची	-11.2574
▁पसिना	-11.2574
▁मनोविज्ञान	-11.2575
▁टाँस	-11.2576
▁नवरात्र	-11.2577
▁टेनिस	-11.2578
▁राशी	-11.2579
▁भूतपूर्व	-11.258
▁अग्रसर	-11.258
▁सम्यक	-11.2593
▁पासाङ	-11.2635
ब्रह्म	-11.2654
ə	-11.2719
▁गोलरक्षक	-11.2719
▁धौलागिरी	-11.2719
▁पारिश्रमिक	-11.2719
▁माइक्रोसफ्ट	-11.2719
▁विकिमीडिया	-11.2719
▁विद्यावारिधि	-11.2719
▁सेन्टिमिटर	-11.2719
▁गहिराई	-11.2719
▁जीवाणु	-11.2719
▁याज्ञवल्क्य	-11.2719
▁अनुसरण	-11.2719
▁हाब्रे	-11.2719
▁दक्षिणपूर्वी	-11.2719
▁नोकरी	-11.2719
▁डेङ्गी	-11.2719
▁सार्थक	-11.2719
▁शायद	-11.272
▁लखनऊ	-11.272
▁हुंदै	-11.272
▁सिरिज	-11.272
▁खारेज	-11.2721
▁इंडिया	-11.2721
▁उद्यान	-11.2722
▁शनिवार	-11.2722
▁मोहन्याल	-11.2722
▁सन्धी	-11.2723
▁कुमाउ	-11.2729
▁उन्नत	-11.2826
ম	-11.2866
*	-11.2866
▁कूटनीति	-11.2866
▁शताव्दी	-11.2866
▁found	-11.2866
▁आवस्यक	-11.2866
▁जनश्रुति	-11.2866
▁म्युजिक	-11.2866
▁ह्वाइट	-11.2866
▁पोथ्रा	-11.2866
▁कालिदास	-11.2866
▁फ्रांस	-11.2866
▁बीरेन्द्र	-11.2866
▁अर्पण	-11.2866
▁पोशाक	-11.2866
▁पिउने	-11.2866
▁केंद्र	-11.2866
▁तुलनात्मक	-11.2867
▁तिर्थस्थल	-11.2867
▁हेनरी	-11.2867
▁शेरचन	-11.2868
▁राँगा	-11.2868
land	-11.2888
पौवा	-11.294
▁आउँदै	-11.2984
▁छुट्याउन	-11.3002
▁कञ्चन	-11.3009
ক	-11.3015
▁इजाजत	-11.3015
▁years	-11.3015
▁अत्याचार	-11.3015
▁दस्तावेज	-11.3015
▁प्रधानसेनापति	-11.3015
▁मस्यौदा	-11.3015
▁राजनितिज्ञ	-11.3015
▁विकिपीडिया	-11.3015
▁व्यावहारिक	-11.3015
▁स्पोर्ट्स	-11.3015
▁हिसावले	-11.3015
▁अधिवेशन	-11.3015
▁मेगावाट	-11.3015
Wiki	-11.3015
▁बांग्ला	-11.3015
▁स्रष्टा	-11.3015
▁भाँडो	-11.3015
▁एउटी	-11.3015
▁विभूति	-11.3015
▁भुइँ	-11.3015
▁ग्रुप	-11.3015
▁विख्यात	-11.3015
▁राधाकृष्ण	-11.3016
▁आइतबार	-11.3016
▁exist	-11.3016
▁रोपनी	-11.3017
▁माइक्रो	-11.3023
▁प्रेत	-11.3034
▁जाँत	-11.3038
▁मार्टिन	-11.3082
ाइदिन्छ	-11.3084
उत्पाद	-11.3093
आधुनिक	-11.3102
सुन्दर	-11.3109
ेटिभ	-11.3137
ˌ	-11.3167
▁article	-11.3167
▁चैनपुर	-11.3167
▁न्युजिल्यान्ड	-11.3167
▁प्रधानाध्यापक	-11.3167
▁प्रमूख	-11.3167
▁मौरिटियस	-11.3167
▁केटाकेटी	-11.3167
▁तत्पश्चात	-11.3167
▁मनकामना	-11.3167
▁रक्तचाप	-11.3167
▁वास्तुकला	-11.3167
▁विश्राम	-11.3167
▁गांधी	-11.3167
▁अनुगमन	-11.3167
▁मसिनो	-11.3167
▁नुहाउन	-11.3167
▁माउन्ट	-11.3167
▁जादू	-11.3167
▁कहीँ	-11.3167
▁अवस्थी	-11.3167
▁बाबू	-11.3167
▁वस्ति	-11.3167
▁पंचायत	-11.3167
▁अक्षता	-11.3168
▁बगेको	-11.3169
▁बिरोध	-11.3188
▁प्यालेस	-11.3246
▁व्यावसाय	-11.33
য	-11.332
$	-11.332
▁खतरनाक	-11.332
▁नलाग्ने	-11.332
▁फाइनान्स	-11.332
▁मिलिमिटर	-11.332
▁दिदीबहिनी	-11.332
▁समर्पण	-11.332
▁समाजसेवी	-11.332
▁खाद्यान्न	-11.332
▁परिकल्पना	-11.332
▁कारवाही	-11.332
▁पदाधिकारी	-11.332
▁फलफुल	-11.332
▁नक्शा	-11.3321
▁सरोवर	-11.3321
▁अठोट	-11.3321
▁उस्तै	-11.3321
▁थियाे	-11.3321
▁कोशिश	-11.3321
▁डिक्सन	-11.3321
▁तातोपानी	-11.3322
▁समाहित	-11.3322
▁ईरान	-11.3368
सङ्घ	-11.3414
ই	-11.3477
X	-11.3477
▁अद्भुत	-11.3477
▁चंपारण	-11.3477
▁जलाशय	-11.3477
▁टेलीफोन	-11.3477
▁फोर्ब्स	-11.3477
▁माछापुच्छ्रे	-11.3477
▁सोवियत	-11.3477
▁हेपाटाइटिस	-11.3477
▁उड्डयन	-11.3477
▁जिन्दगी	-11.3477
Z	-11.3477
▁एपीएफ	-11.3477
▁विश्वामित्र	-11.3477
▁कैलपाल	-11.3477
▁रणजीत	-11.3477
▁धिमाल	-11.3477
▁भिरालो	-11.3477
▁सदैव	-11.3477
▁लक्षित	-11.3477
▁स्मार्ट	-11.3477
▁वकालत	-11.3477
ensis	-11.3477
&	-11.3477
▁डन्डी	-11.3478
बर्मेली	-11.3481
▁गुलाब	-11.3485
▁दिमाग	-11.3491
▁भाँच	-11.3496
ष्‍ट	-11.3521
▁अनुपम	-11.3548
श्रेणी	-11.3571
▁सच्चा	-11.3618
▁इत्यादी	-11.3635
▁उत्सर्जन	-11.3635
▁छिट्टै	-11.3635
▁पहेंलो	-11.3635
▁प्रयाेग	-11.3635
▁विधेयक	-11.3635
▁वैधानिक	-11.3635
▁श्वास्थकेन्द्र	-11.3635
▁स्टिलद्वारा	-11.3635
▁कंग्रेस	-11.3635
▁कमान्डर	-11.3635
▁ढुकुटी	-11.3635
▁दीक्षित	-11.3635
▁कट्टेल	-11.3635
▁करुणा	-11.3635
▁बोगटी	-11.3635
▁चेल्सी	-11.3635
▁मृत्युदण्ड	-11.3635
▁लम्बाइ	-11.3635
▁हिमनदी	-11.3635
▁आगामी	-11.3636
▁वरुण	-11.3636
▁कम्मर	-11.3636
▁बंगला	-11.3636
▁युवक	-11.3636
▁महीना	-11.3637
▁एकातिर	-11.3639
▁निष्ठा	-11.3711
▁प्रत्यक	-11.3731
▁know	-11.3797
▁अँध्यारो	-11.3797
▁अनुमोदन	-11.3797
▁इन्टरनेशनल	-11.3797
▁ड्यनिएल्ले	-11.3797
▁त्रिवेणी	-11.3797
▁पौड्याल	-11.3797
▁मच्छिन्द्रनाथ	-11.3797
▁रेखदेख	-11.3797
▁हातहतियार	-11.3797
▁त्रियुगा	-11.3797
▁जनमुक्ति	-11.3797
▁बार्षिक	-11.3797
▁रॉयल	-11.3797
▁आर्सनल	-11.3797
▁शम्भु	-11.3797
▁निर्वाण	-11.3797
▁टाइगर	-11.3797
▁प्रसिद्द	-11.3797
▁जिब्रो	-11.3797
▁चिह्न	-11.3797
▁यौटा	-11.3797
▁छाँगो	-11.3797
▁भेरीगंगा	-11.3798
▁हुर्के	-11.3798
▁अवैध	-11.3799
▁राजीव	-11.3801
ढुङ्गा	-11.3896
सङ्ग्रह	-11.3896
▁बगैंचा	-11.3961
ˆ	-11.3961
▁about	-11.3961
▁work	-11.3961
▁इन्चार्ज	-11.3961
▁ताजपुरिया	-11.3961
▁धुम्रपान	-11.3961
▁भग्नावशेष	-11.3961
▁मेलमिलाप	-11.3961
▁यान्त्रिक	-11.3961
▁युक्रेन	-11.3961
▁स्वयंसेवक	-11.3961
▁चेन्नई	-11.3961
▁त्रिपाठी	-11.3961
▁रिजर्व	-11.3961
▁अंतर्गत	-11.3961
▁कार्यपालिका	-11.3961
▁बीबीसी	-11.3961
▁चुचुरा	-11.3961
▁मूल्याङ्कन	-11.3961
▁रक्षाबन्धन	-11.3961
▁पार्श्व	-11.3961
▁लेबनान	-11.3961
▁उत्पादित	-11.3961
▁मिठाई	-11.3961
▁नास्तिक	-11.3961
▁सर्वहारा	-11.3961
▁पाक्षिक	-11.3961
▁चिन्तित	-11.3961
▁भद्रकाली	-11.3961
▁स्काउट	-11.3961
विस्तारसँगै	-11.3961
▁पुनर्स्थापना	-11.3962
▁बद्री	-11.3962
▁गैंडा	-11.3962
▁परियार	-11.3962
▁गुलाफ	-11.3963
▁वराह	-11.3987
िष्ण	-11.4115
▁2068/69	-11.4127
▁977-1-	-11.4127
▁surgery	-11.4127
▁इण्डोनेशिया	-11.4127
▁बहुचर्चित	-11.4127
▁शकुन्तला	-11.4127
▁आलोचक	-11.4127
▁गर्थिन्	-11.4127
▁सिङ्गापुर	-11.4127
▁प्रतिलिपि	-11.4127
▁समातेर	-11.4127
▁पूजापाठ	-11.4127
▁ऐश्वर्य	-11.4127
▁प्रवचन	-11.4127
▁फिदिम	-11.4127
প	-11.4297
স	-11.4469
​	-11.4645
ো	-11.4645
J	-11.5126
ॠ	-11.519
>	-11.519
‘	-11.5315
ু	-11.5379
ি	-11.5379
ন	-11.5379
ا	-11.5767
ত	-11.6171
^	-11.681
→	-11.7492
[	-11.773
দ	-11.8224
ল	-11.8224
ɪ	-11.848
‎	-11.848
‚	-11.8743
ل	-11.9014
॒	-11.9014
ধ	-11.9014
ː	-11.9291
†	-11.9291
q	-12.0172
র	-12.0174
`	-12.0174
ব	-12.0174
#	-12.0487
―	-12.0809
é	-12.1143
á	-12.1845
།	-12.2215
ড	-12.2215
॑	-12.2215
ऱ	-12.26
ر	-12.3
গ	-12.3416
	-12.3851
ɑ	-12.3851
م	-12.4306
ɛ	-12.4306
ॐ	-12.5217
æ	-12.5282
·	-13.0496
শ	-13.2458
হ	-13.2459
খ	-13.246
~	-13.2461
♀	-13.2462
জ	-13.2463
ॄ	-13.2464
́	-13.2465
আ	-13.2466
়	-13.2467
ऑ	-13.2468
■	-13.2469
′	-13.247
